{
  "version": "1.0",
  "truncation": null,
  "padding": null,
  "added_tokens": [
    {
      "id": 0,
      "content": "<|endoftext|>",
      "single_word": false,
      "lstrip": false,
      "rstrip": false,
      "normalized": false,
      "special": true
    },
    {
      "id": 1,
      "content": "<|padding|>",
      "single_word": false,
      "lstrip": false,
      "rstrip": false,
      "normalized": false,
      "special": true
    }
  ],
  "normalizer": {
    "type": "NFKC"
  },
  "pre_tokenizer": {
    "type": "ByteLevel",
    "add_prefix_space": true,
    "trim_offsets": true,
    "use_regex": true
  },
  "post_processor": {
    "type": "ByteLevel",
    "add_prefix_space": true,
    "trim_offsets": true,
    "use_regex": true
  },
  "decoder": {
    "type": "ByteLevel",
    "add_prefix_space": true,
    "trim_offsets": true,
    "use_regex": true
  },
  "model": {
    "type": "BPE",
    "dropout": null,
    "unk_token": null,
    "continuing_subword_prefix": null,
    "end_of_word_suffix": null,
    "fuse_unk": false,
    "vocab": {
      "<|endoftext|>": 0,
      "<|padding|>": 1,
      "!": 2,
      "\"": 3,
      "#": 4,
      "$": 5,
      "%": 6,
      "&": 7,
      "'": 8,
      "(": 9,
      ")": 10,
      "*": 11,
      "+": 12,
      ",": 13,
      "-": 14,
      ".": 15,
      "/": 16,
      "0": 17,
      "1": 18,
      "2": 19,
      "3": 20,
      "4": 21,
      "5": 22,
      "6": 23,
      "7": 24,
      "8": 25,
      "9": 26,
      ":": 27,
      ";": 28,
      "<": 29,
      "=": 30,
      ">": 31,
      "?": 32,
      "@": 33,
      "A": 34,
      "B": 35,
      "C": 36,
      "D": 37,
      "E": 38,
      "F": 39,
      "G": 40,
      "H": 41,
      "I": 42,
      "J": 43,
      "K": 44,
      "L": 45,
      "M": 46,
      "N": 47,
      "O": 48,
      "P": 49,
      "Q": 50,
      "R": 51,
      "S": 52,
      "T": 53,
      "U": 54,
      "V": 55,
      "W": 56,
      "X": 57,
      "Y": 58,
      "Z": 59,
      "[": 60,
      "\\": 61,
      "]": 62,
      "^": 63,
      "_": 64,
      "`": 65,
      "a": 66,
      "b": 67,
      "c": 68,
      "d": 69,
      "e": 70,
      "f": 71,
      "g": 72,
      "h": 73,
      "i": 74,
      "j": 75,
      "k": 76,
      "l": 77,
      "m": 78,
      "n": 79,
      "o": 80,
      "p": 81,
      "q": 82,
      "r": 83,
      "s": 84,
      "t": 85,
      "u": 86,
      "v": 87,
      "w": 88,
      "x": 89,
      "y": 90,
      "z": 91,
      "{": 92,
      "|": 93,
      "}": 94,
      "~": 95,
      "¡": 96,
      "¢": 97,
      "£": 98,
      "¤": 99,
      "¥": 100,
      "¦": 101,
      "§": 102,
      "¨": 103,
      "©": 104,
      "ª": 105,
      "«": 106,
      "¬": 107,
      "®": 108,
      "¯": 109,
      "°": 110,
      "±": 111,
      "²": 112,
      "³": 113,
      "´": 114,
      "µ": 115,
      "¶": 116,
      "·": 117,
      "¸": 118,
      "¹": 119,
      "º": 120,
      "»": 121,
      "¼": 122,
      "½": 123,
      "¾": 124,
      "¿": 125,
      "Â": 126,
      "Ã": 127,
      "Ä": 128,
      "Å": 129,
      "Æ": 130,
      "Ç": 131,
      "È": 132,
      "É": 133,
      "Ê": 134,
      "Ë": 135,
      "Ì": 136,
      "Í": 137,
      "Î": 138,
      "Ï": 139,
      "Ð": 140,
      "Ñ": 141,
      "Ò": 142,
      "Ó": 143,
      "Ô": 144,
      "Õ": 145,
      "Ö": 146,
      "×": 147,
      "Ø": 148,
      "Ù": 149,
      "Ú": 150,
      "Û": 151,
      "Ü": 152,
      "Ý": 153,
      "Þ": 154,
      "ß": 155,
      "à": 156,
      "á": 157,
      "â": 158,
      "ã": 159,
      "ä": 160,
      "å": 161,
      "æ": 162,
      "ç": 163,
      "è": 164,
      "é": 165,
      "ê": 166,
      "ë": 167,
      "ì": 168,
      "í": 169,
      "î": 170,
      "ï": 171,
      "ð": 172,
      "ó": 173,
      "ô": 174,
      "Ā": 175,
      "ā": 176,
      "Ă": 177,
      "ă": 178,
      "Ą": 179,
      "ą": 180,
      "Ć": 181,
      "ć": 182,
      "Ĉ": 183,
      "ĉ": 184,
      "Ċ": 185,
      "ċ": 186,
      "Č": 187,
      "č": 188,
      "Ď": 189,
      "ď": 190,
      "Đ": 191,
      "đ": 192,
      "Ē": 193,
      "ē": 194,
      "Ĕ": 195,
      "ĕ": 196,
      "Ė": 197,
      "ė": 198,
      "Ę": 199,
      "ę": 200,
      "Ě": 201,
      "ě": 202,
      "Ĝ": 203,
      "ĝ": 204,
      "Ğ": 205,
      "ğ": 206,
      "Ġ": 207,
      "ġ": 208,
      "Ģ": 209,
      "ģ": 210,
      "Ĥ": 211,
      "ĥ": 212,
      "Ħ": 213,
      "ħ": 214,
      "Ĩ": 215,
      "ĩ": 216,
      "Ī": 217,
      "ī": 218,
      "Ĭ": 219,
      "ĭ": 220,
      "Į": 221,
      "į": 222,
      "İ": 223,
      "ı": 224,
      "Ĳ": 225,
      "ĳ": 226,
      "Ĵ": 227,
      "ĵ": 228,
      "Ķ": 229,
      "ķ": 230,
      "ĸ": 231,
      "Ĺ": 232,
      "ĺ": 233,
      "Ļ": 234,
      "ļ": 235,
      "Ľ": 236,
      "ľ": 237,
      "Ŀ": 238,
      "ŀ": 239,
      "Ł": 240,
      "ł": 241,
      "Ń": 242,
      "Ġt": 243,
      "Ġa": 244,
      "in": 245,
      "he": 246,
      "on": 247,
      "re": 248,
      "..": 249,
      "at": 250,
      "er": 251,
      "Ġthe": 252,
      "Ġs": 253,
      "Ġo": 254,
      "en": 255,
      "Ġc": 256,
      "al": 257,
      "ed": 258,
      "ion": 259,
      "es": 260,
      "Ġp": 261,
      "or": 262,
      "Ġof": 263,
      "it": 264,
      "ic": 265,
      "an": 266,
      "is": 267,
      "Ġf": 268,
      "....": 269,
      "Ġan": 270,
      "ro": 271,
      "Ġin": 272,
      "Ġw": 273,
      "Ġd": 274,
      "ing": 275,
      "Ġm": 276,
      "ct": 277,
      "Ġb": 278,
      "ar": 279,
      "Ġand": 280,
      "le": 281,
      "as": 282,
      "ĠĠ": 283,
      "Ġe": 284,
      "ent": 285,
      "Ġto": 286,
      "ation": 287,
      "el": 288,
      "Ġre": 289,
      "ĠT": 290,
      "et": 291,
      "........": 292,
      "Ġ1": 293,
      "Ġl": 294,
      "st": 295,
      "im": 296,
      "ol": 297,
      "Ġ(": 298,
      "ig": 299,
      "om": 300,
      "Ġn": 301,
      "ul": 302,
      "ur": 303,
      "Ġth": 304,
      "il": 305,
      "us": 306,
      "ce": 307,
      "Ġh": 308,
      "ure": 309,
      "ra": 310,
      "id": 311,
      "Ġis": 312,
      "Ġfor": 313,
      "ĠS": 314,
      "ut": 315,
      "ĠA": 316,
      "ch": 317,
      "un": 318,
      "iv": 319,
      "ĠC": 320,
      "ow": 321,
      "Ġ2": 322,
      "Ġcon": 323,
      "Ġst": 324,
      "00": 325,
      "Ġg": 326,
      "Ġ.": 327,
      "ly": 328,
      "ith": 329,
      "ot": 330,
      "am": 331,
      "ĠI": 332,
      "od": 333,
      "ĠThe": 334,
      "Ġpro": 335,
      "os": 336,
      "ect": 337,
      "Ġbe": 338,
      "Ġv": 339,
      "em": 340,
      "um": 341,
      "Ġwith": 342,
      "per": 343,
      "if": 344,
      "ĠP": 345,
      "ĠM": 346,
      "res": 347,
      "ĠĠĠĠ": 348,
      "Ġon": 349,
      "ere": 350,
      "qu": 351,
      "Ġr": 352,
      "................": 353,
      "ter": 354,
      "ity": 355,
      "ab": 356,
      "Ġas": 357,
      "ĠF": 358,
      "ag": 359,
      "Ġde": 360,
      "ate": 361,
      "ical": 362,
      "Ġ0": 363,
      "ĠĊ": 364,
      "Ġex": 365,
      "pl": 366,
      "âĢ": 367,
      "ial": 368,
      "Ġcom": 369,
      "ir": 370,
      "Ġare": 371,
      "Ġal": 372,
      "Ġ3": 373,
      "Ġby": 374,
      "Ġthat": 375,
      "ĠR": 376,
      "Ġat": 377,
      "ad": 378,
      "ated": 379,
      "ib": 380,
      "ĠD": 381,
      "ment": 382,
      "ĠE": 383,
      "ction": 384,
      "ver": 385,
      "ac": 386,
      "the": 387,
      "ess": 388,
      "Ġres": 389,
      "ist": 390,
      "rom": 391,
      "ĠN": 392,
      "op": 393,
      "est": 394,
      "ĠB": 395,
      "du": 396,
      "iz": 397,
      "ive": 398,
      "Ġsu": 399,
      "ant": 400,
      "ve": 401,
      "ĠL": 402,
      "Ġi": 403,
      "ĠH": 404,
      "oc": 405,
      "Ġus": 406,
      "th": 407,
      "Ġwas": 408,
      "ies": 409,
      "igh": 410,
      "se": 411,
      "Ġcomp": 412,
      "ain": 413,
      "Ġ4": 414,
      "ff": 415,
      "and": 416,
      "ay": 417,
      "ers": 418,
      "ens": 419,
      "und": 420,
      "Ġsh": 421,
      "Ġ-": 422,
      "pe": 423,
      "ult": 424,
      "act": 425,
      "ine": 426,
      "Ġor": 427,
      "ud": 428,
      "pt": 429,
      "ĠW": 430,
      "Ġ5": 431,
      "Ġco": 432,
      "ell": 433,
      "ater": 434,
      "Ġfrom": 435,
      "lect": 436,
      "Ġch": 437,
      "orm": 438,
      "ran": 439,
      "ĠO": 440,
      "ition": 441,
      "Ġwh": 442,
      "art": 443,
      "ations": 444,
      "Ġen": 445,
      "ĠIn": 446,
      "ge": 447,
      "ress": 448,
      "og": 449,
      "ace": 450,
      "pp": 451,
      "yst": 452,
      "ru": 453,
      "Ġse": 454,
      "ĠG": 455,
      "ich": 456,
      "ort": 457,
      "ore": 458,
      "Ġmod": 459,
      "all": 460,
      ").": 461,
      "Ġcont": 462,
      "ĠJ": 463,
      "Ġim": 464,
      "able": 465,
      "Ġwere": 466,
      "01": 467,
      "ase": 468,
      "ign": 469,
      "ap": 470,
      "Ġthis": 471,
      "................................": 472,
      "Ġme": 473,
      "--": 474,
      "nt": 475,
      "Ġ6": 476,
      "ide": 477,
      "iff": 478,
      "low": 479,
      "ĠĠĠĠĠĠĠĠ": 480,
      "age": 481,
      "form": 482,
      "ature": 483,
      "cre": 484,
      "ill": 485,
      "Ġcan": 486,
      "ys": 487,
      "ance": 488,
      "ous": 489,
      "red": 490,
      "ri": 491,
      "igure": 492,
      ".,": 493,
      "Ġper": 494,
      "Ġwhich": 495,
      "Ġhe": 496,
      "Ġsp": 497,
      "Ġpl": 498,
      "Ġ=": 499,
      "con": 500,
      "Ġint": 501,
      "ph": 502,
      "10": 503,
      "Ġad": 504,
      "vel": 505,
      "ak": 506,
      "Ġmet": 507,
      "Ġit": 508,
      "ight": 509,
      "Ġne": 510,
      "Ġdis": 511,
      "rans": 512,
      "ug": 513,
      "ave": 514,
      "cl": 515,
      "ip": 516,
      "ĠĊĠĊ": 517,
      "cess": 518,
      "up": 519,
      "ub": 520,
      "ric": 521,
      "Ġac": 522,
      "Ġshow": 523,
      "end": 524,
      "Ġ7": 525,
      "ystem": 526,
      "ach": 527,
      "ence": 528,
      "),": 529,
      "ass": 530,
      "ution": 531,
      "her": 532,
      "Ġeff": 533,
      "ents": 534,
      "Ġdiff": 535,
      "ast": 536,
      "ely": 537,
      "ruct": 538,
      "ĠV": 539,
      "ary": 540,
      "ue": 541,
      "Ġob": 542,
      "our": 543,
      "ĠK": 544,
      "ĠTh": 545,
      "ating": 546,
      "Ġ[": 547,
      "pos": 548,
      "Ġwe": 549,
      "The": 550,
      "Ġle": 551,
      "Ġ8": 552,
      "aterial": 553,
      "Ġsur": 554,
      "ific": 555,
      "ie": 556,
      "te": 557,
      "lu": 558,
      "Ġk": 559,
      "ard": 560,
      "Ġ10": 561,
      "face": 562,
      "Ġresult": 563,
      "ĠU": 564,
      "hen": 565,
      "ility": 566,
      "emper": 567,
      "ron": 568,
      "Ġnot": 569,
      "ced": 570,
      "av": 571,
      "Ġdes": 572,
      "etw": 573,
      "of": 574,
      "ugh": 575,
      "ĠĊĠ": 576,
      "ther": 577,
      "ire": 578,
      "Ġmodel": 579,
      "Ġsol": 580,
      "emperature": 581,
      "Ġ19": 582,
      "Ġtrans": 583,
      "Ġun": 584,
      "Ġinter": 585,
      "Ġph": 586,
      "Ġpart": 587,
      "de": 588,
      "11": 589,
      "Ġelect": 590,
      "eter": 591,
      "Ġsystem": 592,
      "ased": 593,
      "hod": 594,
      "Ġro": 595,
      "Ġ9": 596,
      "ech": 597,
      "dition": 598,
      "Ġab": 599,
      "ates": 600,
      "ied": 601,
      "Ġimp": 602,
      "sion": 603,
      "ite": 604,
      "Ġused": 605,
      "ved": 606,
      "Ġpre": 607,
      "rib": 608,
      "Ġmo": 609,
      "hem": 610,
      "erg": 611,
      "wo": 612,
      "pec": 613,
      "Ġhave": 614,
      "ection": 615,
      "com": 616,
      "âĪ": 617,
      "ime": 618,
      "ang": 619,
      "Ġhas": 620,
      "eld": 621,
      "ound": 622,
      "cul": 623,
      "olog": 624,
      "ĠâĢ": 625,
      "een": 626,
      "tain": 627,
      "int": 628,
      "ors": 629,
      "ll": 630,
      "Ġ,": 631,
      "str": 632,
      "so": 633,
      "Ġy": 634,
      "12": 635,
      "Ġstud": 636,
      "Ġsam": 637,
      "ple": 638,
      "uld": 639,
      "yn": 640,
      "Ġhigh": 641,
      "ĠThis": 642,
      "ics": 643,
      "Ġform": 644,
      "ork": 645,
      "ari": 646,
      "ber": 647,
      "Figure": 648,
      "etween": 649,
      "ructure": 650,
      "yl": 651,
      "Ġdiffere": 652,
      "50": 653,
      "ym": 654,
      "enc": 655,
      "cent": 656,
      "ile": 657,
      "ata": 658,
      "Ġeffect": 659,
      "ding": 660,
      "Ġap": 661,
      "ree": 662,
      "der": 663,
      "Ġ200": 664,
      "Ġtest": 665,
      "19": 666,
      "Ġsc": 667,
      "ient": 668,
      "Ġmaterial": 669,
      "asure": 670,
      "ros": 671,
      "Ġtemperature": 672,
      "Ġanal": 673,
      "20": 674,
      "Ġsim": 675,
      "Ġusing": 676,
      "ms": 677,
      "Ġval": 678,
      "resent": 679,
      "Ġsub": 680,
      "here": 681,
      "Ġcell": 682,
      "Ġbetween": 683,
      "ia": 684,
      "ield": 685,
      "ized": 686,
      "Ġqu": 687,
      "Ġmethod": 688,
      "Ġgro": 689,
      "ear": 690,
      "ong": 691,
      ".;": 692,
      "Ġtwo": 693,
      "les": 694,
      "Ġrel": 695,
      "rad": 696,
      "ener": 697,
      "Ġlow": 698,
      "co": 699,
      "Ġapp": 700,
      "Ġbeen": 701,
      "ry": 702,
      "out": 703,
      "duct": 704,
      "pect": 705,
      "Ġsurface": 706,
      "Ġpol": 707,
      "ON": 708,
      "Ġincre": 709,
      "pon": 710,
      "perim": 711,
      "ments": 712,
      "mo": 713,
      "ally": 714,
      "echn": 715,
      "ions": 716,
      "__": 717,
      "ix": 718,
      "lo": 719,
      "ser": 720,
      "ust": 721,
      "ail": 722,
      "Ġar": 723,
      "are": 724,
      "ĊĠ": 725,
      "unction": 726,
      "ĠÂ": 727,
      "ice": 728,
      "Ġev": 729,
      "âĢĵ": 730,
      "Ġass": 731,
      "rain": 732,
      "iqu": 733,
      "Ġalso": 734,
      "io": 735,
      "Ġthan": 736,
      "ative": 737,
      "ization": 738,
      "Ġprocess": 739,
      "ces": 740,
      "min": 741,
      "Ġund": 742,
      "ck": 743,
      "15": 744,
      "13": 745,
      "Ġmeasure": 746,
      "Ġcl": 747,
      "uring": 748,
      "Ġresults": 749,
      "Ġdata": 750,
      "Ġout": 751,
      "ep": 752,
      "Ġcons": 753,
      "ack": 754,
      "yd": 755,
      "velop": 756,
      "plic": 757,
      "Ġet": 758,
      "000": 759,
      "Ġequ": 760,
      "TI": 761,
      "oth": 762,
      "Ġspec": 763,
      "agn": 764,
      "to": 765,
      "Ġmic": 766,
      "gth": 767,
      "ĠÎ": 768,
      "ex": 769,
      "Ġdifferent": 770,
      "Ġinv": 771,
      "Ġ201": 772,
      "Ġnan": 773,
      "ax": 774,
      "Ġthese": 775,
      "Ġchar": 776,
      "Ġtime": 777,
      "14": 778,
      "Ġrep": 779,
      "cur": 780,
      "ER": 781,
      "ium": 782,
      "ergy": 783,
      "Ġsign": 784,
      "rough": 785,
      "Ġcor": 786,
      "pert": 787,
      "Ġ12": 788,
      "Ġpos": 789,
      "ĠWe": 790,
      "ange": 791,
      "ract": 792,
      "Ġprov": 793,
      "??": 794,
      "ular": 795,
      "Ġno": 796,
      "ĠSt": 797,
      "Ġcur": 798,
      "ration": 799,
      "ysis": 800,
      "Ġreg": 801,
      "ram": 802,
      "Ġone": 803,
      "Ġdist": 804,
      "Ġstructure": 805,
      "acter": 806,
      "16": 807,
      "ory": 808,
      "ability": 809,
      "Ġpo": 810,
      "Ġpar": 811,
      "ressure": 812,
      "Ġlo": 813,
      "ject": 814,
      "ted": 815,
      "Ġvari": 816,
      "Ġact": 817,
      "ered": 818,
      "ĉč": 819,
      "action": 820,
      "Ġnum": 821,
      "aus": 822,
      "Ġ13": 823,
      "ĠY": 824,
      "Ġcar": 825,
      "ible": 826,
      "Ġunder": 827,
      "hed": 828,
      "Ġem": 829,
      "ize": 830,
      "ose": 831,
      "one": 832,
      "tern": 833,
      "25": 834,
      "ness": 835,
      "ren": 836,
      "pro": 837,
      "Ġinto": 838,
      "Ġexperim": 839,
      "Ġperform": 840,
      "Ġappro": 841,
      "Ġover": 842,
      "Ġgener": 843,
      "Ġpartic": 844,
      "Ġcol": 845,
      "Ġ+": 846,
      "ency": 847,
      "Ġcontro": 848,
      "ively": 849,
      "ĠĠĠĠĠĠĠĠĠĠĠĠĠĠĠĠ": 850,
      "clud": 851,
      "ick": 852,
      "Ġdevelop": 853,
      "ould": 854,
      "Ġfil": 855,
      "Ġu": 856,
      "Ġman": 857,
      "ically": 858,
      "Ġmore": 859,
      "ivity": 860,
      "duced": 861,
      "ases": 862,
      "ind": 863,
      "Ġdesign": 864,
      "Ġsuch": 865,
      "par": 866,
      "Ġfunction": 867,
      "Ġpresent": 868,
      "Ġconst": 869,
      "Ġother": 870,
      "cor": 871,
      "Ġflow": 872,
      "rm": 873,
      "ĠZ": 874,
      "fter": 875,
      "18": 876,
      "Ġup": 877,
      "ual": 878,
      "Ġind": 879,
      "17": 880,
      "Ġpat": 881,
      "âĪĴ": 882,
      "ting": 883,
      "ES": 884,
      "irst": 885,
      "pend": 886,
      "30": 887,
      "ĠX": 888,
      "Ġtechn": 889,
      "âĢ¢": 890,
      "Ġvol": 891,
      "Ġj": 892,
      "ene": 893,
      "Ġthrough": 894,
      "----": 895,
      "ĠRe": 896,
      "Ġwill": 897,
      "Ġall": 898,
      "duction": 899,
      "Ġcr": 900,
      "Ġext": 901,
      "ology": 902,
      "ydro": 903,
      "Ġprob": 904,
      "perties": 905,
      "fer": 906,
      "Ġdi": 907,
      "gen": 908,
      "ne": 909,
      "Ġcal": 910,
      "ever": 911,
      "Ġstudy": 912,
      "ĠCon": 913,
      "40": 914,
      "nce": 915,
      "Ġ\"": 916,
      "chan": 917,
      "ues": 918,
      "Ġshown": 919,
      "Ġobtain": 920,
      "Ġenergy": 921,
      "Ġopt": 922,
      "Ġdev": 923,
      "Ġlay": 924,
      "Ġag": 925,
      "ential": 926,
      "emb": 927,
      "Ġdet": 928,
      "Ġ20": 929,
      "Ġcondition": 930,
      "Ġits": 931,
      "ared": 932,
      "Ġlar": 933,
      "ome": 934,
      "Ġpressure": 935,
      "Ġuse": 936,
      "Ġeach": 937,
      "ities": 938,
      "Ġty": 939,
      "Ġobser": 940,
      "In": 941,
      "Ġtheir": 942,
      "Ġwork": 943,
      "Ġflu": 944,
      "................................................................": 945,
      "ik": 946,
      "formation": 947,
      "ane": 948,
      "ĠAn": 949,
      "ox": 950,
      "ower": 951,
      "Ġboth": 952,
      "AS": 953,
      "rent": 954,
      "old": 955,
      "ement": 956,
      "ental": 957,
      "for": 958,
      "ulation": 959,
      "ption": 960,
      "200": 961,
      "].": 962,
      "Ġwater": 963,
      "Ġver": 964,
      "ural": 965,
      "âĢĻ": 966,
      "EN": 967,
      "ĠPro": 968,
      "Ġbut": 969,
      "Ġanalysis": 970,
      "Ġmechan": 971,
      "Ġnon": 972,
      "60": 973,
      "own": 974,
      "Ġz": 975,
      "Ġ15": 976,
      "Ġx": 977,
      "Ġdeter": 978,
      "Ġrequ": 979,
      "als": 980,
      "ĠFigure": 981,
      "22": 982,
      "Ġmin": 983,
      "cond": 984,
      "unt": 985,
      "imens": 986,
      "ock": 987,
      "Ġox": 988,
      "Ġfirst": 989,
      "raph": 990,
      "etic": 991,
      "ensity": 992,
      "Ġ_": 993,
      "cle": 994,
      "ĠIt": 995,
      "put": 996,
      "Ġmay": 997,
      "Ġfield": 998,
      "Ġproperties": 999,
      "ann": 1000,
      "Ġwhere": 1001,
      "Ġ$": 1002,
      "Ġfe": 1003,
      "IN": 1004,
      "ĠCh": 1005,
      "ollow": 1006,
      "Ġsolution": 1007,
      "Ġcharacter": 1008,
      "Ġwhen": 1009,
      "Ġload": 1010,
      "Ġdo": 1011,
      "mall": 1012,
      "bon": 1013,
      "atic": 1014,
      "Ġmicro": 1015,
      "owever": 1016,
      "Ġinclud": 1017,
      "Ġwell": 1018,
      "ator": 1019,
      "Â°": 1020,
      "Ġdire": 1021,
      "Ġcomple": 1022,
      "ci": 1023,
      "Ġthere": 1024,
      "EM": 1025,
      "Ġpa": 1026,
      "ĠĠĠ": 1027,
      "ational": 1028,
      "ples": 1029,
      "Ġso": 1030,
      "ribution": 1031,
      "Ġspect": 1032,
      "fin": 1033,
      "Ġrat": 1034,
      "ional": 1035,
      "AL": 1036,
      "fore": 1037,
      "Ġtherm": 1038,
      "Ġoper": 1039,
      "Ġloc": 1040,
      "Ġduring": 1041,
      "ified": 1042,
      "reat": 1043,
      "23": 1044,
      "Ġam": 1045,
      "ft": 1046,
      "ĠEn": 1047,
      "Ġonly": 1048,
      "Ġsupp": 1049,
      "Ġelectro": 1050,
      "ade": 1051,
      "Ġrate": 1052,
      "Ġstress": 1053,
      "ission": 1054,
      "Ġparam": 1055,
      "Ġmagn": 1056,
      "Ġcompos": 1057,
      "vi": 1058,
      "Ġ)": 1059,
      "hes": 1060,
      "ĉčĠ": 1061,
      "cop": 1062,
      "24": 1063,
      "OR": 1064,
      "ynam": 1065,
      "Ġapplic": 1066,
      "eg": 1067,
      "80": 1068,
      "fere": 1069,
      "Ġcontrol": 1070,
      "Â·": 1071,
      "ĠCom": 1072,
      "II": 1073,
      "ise": 1074,
      "Ġcap": 1075,
      "Ġ14": 1076,
      "estig": 1077,
      "Ġsens": 1078,
      "requ": 1079,
      "gine": 1080,
      "earch": 1081,
      "iven": 1082,
      "Ġbased": 1083,
      "Ġdue": 1084,
      "sor": 1085,
      "Ġbl": 1086,
      "Ġrad": 1087,
      "Ġset": 1088,
      "lement": 1089,
      "ĠAl": 1090,
      "ĠPh": 1091,
      "Ġnumber": 1092,
      "ength": 1093,
      "Ġtra": 1094,
      "Ġpr": 1095,
      "Ġhig": 1096,
      "ĠFor": 1097,
      "AT": 1098,
      "met": 1099,
      "cept": 1100,
      "ited": 1101,
      "ov": 1102,
      "Ġprovid": 1103,
      "ffic": 1104,
      "Ġafter": 1105,
      "sh": 1106,
      "Ġsmall": 1107,
      "ificant": 1108,
      "Ġcells": 1109,
      "Ġmat": 1110,
      "Ġest": 1111,
      "imum": 1112,
      "tic": 1113,
      "Ġfin": 1114,
      "ale": 1115,
      "Ġsl": 1116,
      "its": 1117,
      "ages": 1118,
      "Ġmaterials": 1119,
      "hemical": 1120,
      "ross": 1121,
      "Ġfact": 1122,
      "Ġline": 1123,
      "Ġheat": 1124,
      "eters": 1125,
      "ĠRes": 1126,
      "Ġconsid": 1127,
      "rop": 1128,
      "Ġshe": 1129,
      "iron": 1130,
      "ĠĊĠĊĠĊĠĊ": 1131,
      "70": 1132,
      "Ġobtained": 1133,
      "ark": 1134,
      "Ġhydro": 1135,
      "ob": 1136,
      "ole": 1137,
      "astic": 1138,
      "TION": 1139,
      "Ġpower": 1140,
      "Ġcalcul": 1141,
      "Ġ'": 1142,
      "ause": 1143,
      "Ġ~": 1144,
      "ĠAs": 1145,
      "Ġpoint": 1146,
      "Ġlevel": 1147,
      "Ġexp": 1148,
      "vent": 1149,
      "...": 1150,
      "Ġcurrent": 1151,
      "amin": 1152,
      "cer": 1153,
      "oci": 1154,
      "Ġcomm": 1155,
      "Ġfollow": 1156,
      "Ġend": 1157,
      "Ġinf": 1158,
      "ior": 1159,
      "35": 1160,
      "Ġnew": 1161,
      "Ġbi": 1162,
      "ering": 1163,
      "75": 1164,
      "Ġatt": 1165,
      "Ġorder": 1166,
      "iew": 1167,
      "Ġter": 1168,
      "ident": 1169,
      "Ġdesc": 1170,
      "bin": 1171,
      "Ġï": 1172,
      "Ġindic": 1173,
      "Ġconditions": 1174,
      "26": 1175,
      "Ġfound": 1176,
      "ymer": 1177,
      "Ġpot": 1178,
      "201": 1179,
      "Ġinvestig": 1180,
      "omet": 1181,
      "Ġgroup": 1182,
      "tion": 1183,
      "90": 1184,
      "Ġmult": 1185,
      "ism": 1186,
      "Ġthree": 1187,
      "Ġelectron": 1188,
      "Ġconcent": 1189,
      "AN": 1190,
      "Ġsecond": 1191,
      "Ġmain": 1192,
      "ED": 1193,
      "ired": 1194,
      "Ġcy": 1195,
      "ffect": 1196,
      "ĠQ": 1197,
      "Ġlayer": 1198,
      "hav": 1199,
      "AC": 1200,
      "ood": 1201,
      "rel": 1202,
      "AR": 1203,
      "33": 1204,
      "28": 1205,
      "ans": 1206,
      "ray": 1207,
      "ost": 1208,
      "Ġfl": 1209,
      "ingle": 1210,
      "Ġ11": 1211,
      "Ġsignificant": 1212,
      "sc": 1213,
      "urther": 1214,
      "rid": 1215,
      "plied": 1216,
      "artic": 1217,
      "27": 1218,
      "ins": 1219,
      "Ġthen": 1220,
      "cus": 1221,
      "Ġrespect": 1222,
      "nal": 1223,
      "Ġ30": 1224,
      "Ġ16": 1225,
      "Ġsame": 1226,
      "be": 1227,
      "âĢĿ": 1228,
      "Ġhigher": 1229,
      "Ġobserved": 1230,
      "Ġphase": 1231,
      "Ġgrow": 1232,
      "ĠUn": 1233,
      "Ġser": 1234,
      "rap": 1235,
      "Ġpe": 1236,
      "ilic": 1237,
      "Ġsome": 1238,
      "Ġimpro": 1239,
      "45": 1240,
      "els": 1241,
      "olution": 1242,
      "roscop": 1243,
      "99": 1244,
      "Ġsize": 1245,
      "ral": 1246,
      "ond": 1247,
      "Ġlim": 1248,
      "Ġpaper": 1249,
      "ST": 1250,
      "Ġins": 1251,
      "Ġlarge": 1252,
      "port": 1253,
      "posed": 1254,
      "ification": 1255,
      "uch": 1256,
      "Ġvalues": 1257,
      "redic": 1258,
      "gan": 1259,
      "Ġmon": 1260,
      "Ġfib": 1261,
      "ines": 1262,
      "Ġcase": 1263,
      "ts": 1264,
      "Ġphot": 1265,
      "tical": 1266,
      "val": 1267,
      "EC": 1268,
      "Ġ:": 1269,
      "Ġconduct": 1270,
      "tal": 1271,
      "29": 1272,
      "Ġposs": 1273,
      "Ġaddition": 1274,
      "ake": 1275,
      "Ġrespon": 1276,
      "Ġmost": 1277,
      "ough": 1278,
      "Ġ100": 1279,
      "Ġel": 1280,
      "21": 1281,
      "cular": 1282,
      "Ġeffic": 1283,
      "Ġwould": 1284,
      "Ġproble": 1285,
      "Ġair": 1286,
      "Ġgas": 1287,
      "Ġrange": 1288,
      "raction": 1289,
      "rack": 1290,
      "ays": 1291,
      "arg": 1292,
      "usion": 1293,
      "Ġoc": 1294,
      "atal": 1295,
      "lis": 1296,
      "ĠâĢ¢": 1297,
      "____": 1298,
      "ilar": 1299,
      "**": 1300,
      "Ġsystems": 1301,
      "strate": 1302,
      "Ġdetermin": 1303,
      "respon": 1304,
      "viron": 1305,
      "Ġtechniqu": 1306,
      "ute": 1307,
      "ew": 1308,
      "Ġpotential": 1309,
      "ink": 1310,
      "ves": 1311,
      "Ġdem": 1312,
      "iss": 1313,
      "itud": 1314,
      "Ġthermal": 1315,
      "rength": 1316,
      "me": 1317,
      "round": 1318,
      "iation": 1319,
      "Ġconn": 1320,
      "ma": 1321,
      "Ġion": 1322,
      "IC": 1323,
      "Ġbehav": 1324,
      "ful": 1325,
      "ume": 1326,
      "ons": 1327,
      "Ġcould": 1328,
      "Ġmix": 1329,
      "ian": 1330,
      "Ġvalue": 1331,
      "ier": 1332,
      "Ġlower": 1333,
      "Ġconf": 1334,
      "elect": 1335,
      "Ġmole": 1336,
      "Ġdescrib": 1337,
      "ĠCO": 1338,
      "RO": 1339,
      "Ġmass": 1340,
      "Ġperformance": 1341,
      "ĠEx": 1342,
      "Ġsample": 1343,
      "cause": 1344,
      "Ġ18": 1345,
      "urn": 1346,
      "Ġ50": 1347,
      "ately": 1348,
      "Ġpres": 1349,
      "Ġdevice": 1350,
      "with": 1351,
      "'s": 1352,
      "ĠThese": 1353,
      "Ġthick": 1354,
      "Ġsingle": 1355,
      "sis": 1356,
      "Ġ25": 1357,
      "Ġreport": 1358,
      "UR": 1359,
      "ode": 1360,
      "ings": 1361,
      "Ġcent": 1362,
      "ĠâĢľ": 1363,
      "Ġabout": 1364,
      "ten": 1365,
      "36": 1366,
      "ites": 1367,
      "Ġfrequ": 1368,
      "Ġlong": 1369,
      "34": 1370,
      "asing": 1371,
      "ii": 1372,
      "Ġdeg": 1373,
      "oy": 1374,
      "Ġste": 1375,
      "ord": 1376,
      "Ġcompon": 1377,
      "Ġstrain": 1378,
      "Ġdepend": 1379,
      "38": 1380,
      "itive": 1381,
      "Ġdistribution": 1382,
      "Ġeffects": 1383,
      "ression": 1384,
      "Ġ&": 1385,
      "duce": 1386,
      "Ġ199": 1387,
      "Ġwithin": 1388,
      "Ġimport": 1389,
      "ynthe": 1390,
      "Ġarea": 1391,
      "????": 1392,
      "fac": 1393,
      "Ġvery": 1394,
      "Ġsupport": 1395,
      "ĠHowever": 1396,
      "Ġshows": 1397,
      "05": 1398,
      "Th": 1399,
      "iquid": 1400,
      "100": 1401,
      "Ġreaction": 1402,
      "Ġinit": 1403,
      "Ġquant": 1404,
      "atter": 1405,
      "Ġcir": 1406,
      "ture": 1407,
      "ove": 1408,
      "aw": 1409,
      "Ġincrease": 1410,
      "xim": 1411,
      "Ġdensity": 1412,
      "ference": 1413,
      "Ġsamples": 1414,
      "65": 1415,
      "Ġcontain": 1416,
      "ially": 1417,
      "Ġpredic": 1418,
      "ected": 1419,
      "cu": 1420,
      "line": 1421,
      "Ġallow": 1422,
      "Ġ/": 1423,
      "Ġlight": 1424,
      "Ġnm": 1425,
      "ients": 1426,
      "Ġsection": 1427,
      "vious": 1428,
      "Ġratio": 1429,
      "ological": 1430,
      "Ġang": 1431,
      "Ġexperimental": 1432,
      "Ġcryst": 1433,
      "IT": 1434,
      "let": 1435,
      "Ġparameters": 1436,
      "ward": 1437,
      "Ġ17": 1438,
      "Ġdiscus": 1439,
      "Ġdecre": 1440,
      "Ġany": 1441,
      "Ġanaly": 1442,
      "Ġmeasured": 1443,
      "Ġbound": 1444,
      "Ġwhile": 1445,
      "ivers": 1446,
      "Ġprog": 1447,
      "Ġmax": 1448,
      "Ġav": 1449,
      "44": 1450,
      "ĠDe": 1451,
      "Ġcompared": 1452,
      "urb": 1453,
      "Ġent": 1454,
      "Ġmed": 1455,
      "ner": 1456,
      "Ġresist": 1457,
      "Ġgiven": 1458,
      "Ġmm": 1459,
      "Ġstate": 1460,
      "Ġ................................................................": 1461,
      "gest": 1462,
      "37": 1463,
      "inal": 1464,
      "ty": 1465,
      "ring": 1466,
      "Ġneed": 1467,
      "NA": 1468,
      "by": 1469,
      "oss": 1470,
      "Ġdr": 1471,
      "ĠÃ": 1472,
      "Ġref": 1473,
      "Ġcarbon": 1474,
      "Ġed": 1475,
      "ET": 1476,
      "Ġbu": 1477,
      "hib": 1478,
      "fficient": 1479,
      "ides": 1480,
      "Ġaut": 1481,
      "ody": 1482,
      "Ġoccur": 1483,
      "ety": 1484,
      "umin": 1485,
      "ĠCo": 1486,
      "39": 1487,
      "Ġtyp": 1488,
      "Ġmade": 1489,
      "ices": 1490,
      "ĠÂ©": 1491,
      "ince": 1492,
      "ike": 1493,
      "Ġinst": 1494,
      "Ġder": 1495,
      "Ġstrength": 1496,
      "ĠTo": 1497,
      "Ġkn": 1498,
      "verage": 1499,
      "Ġlead": 1500,
      "vironment": 1501,
      "inu": 1502,
      "alu": 1503,
      "sed": 1504,
      "ample": 1505,
      "ger": 1506,
      "fact": 1507,
      "ded": 1508,
      "ants": 1509,
      "Ġchang": 1510,
      "Ġthey": 1511,
      "position": 1512,
      "Ġapplied": 1513,
      "ris": 1514,
      "ving": 1515,
      "Ġident": 1516,
      "Ġge": 1517,
      "abric": 1518,
      "man": 1519,
      "EL": 1520,
      "ormal": 1521,
      "66": 1522,
      "med": 1523,
      "Ġour": 1524,
      "reg": 1525,
      "85": 1526,
      "Ġshould": 1527,
      "Ġspace": 1528,
      "Ġevalu": 1529,
      "oint": 1530,
      "eloc": 1531,
      "IS": 1532,
      "ok": 1533,
      "Ġvis": 1534,
      "Ġmot": 1535,
      "Ġmetal": 1536,
      "ĠFig": 1537,
      "Ġmethods": 1538,
      "Ġcomput": 1539,
      "03": 1540,
      "Ġsour": 1541,
      "Ġlength": 1542,
      "ath": 1543,
      "iod": 1544,
      "Ġapproach": 1545,
      "tro": 1546,
      "andard": 1547,
      "Ġut": 1548,
      "ning": 1549,
      "Ġexpl": 1550,
      "Ġbas": 1551,
      "ars": 1552,
      "Ġcomplex": 1553,
      "rate": 1554,
      "ull": 1555,
      "Ġif": 1556,
      "ĠÎ¼": 1557,
      "Ġpolymer": 1558,
      "ynamic": 1559,
      "Ġfilm": 1560,
      "Ġsimilar": 1561,
      "Ġinformation": 1562,
      "iter": 1563,
      "ily": 1564,
      "ives": 1565,
      "row": 1566,
      "ĠSci": 1567,
      "Ġgrowth": 1568,
      "ameter": 1569,
      "ograph": 1570,
      "Ġtreat": 1571,
      "rical": 1572,
      "Ã©": 1573,
      "Fig": 1574,
      "por": 1575,
      "based": 1576,
      "02": 1577,
      "ality": 1578,
      "view": 1579,
      "Ġinteg": 1580,
      "95": 1581,
      "Ġdeveloped": 1582,
      "ĠĠĊ": 1583,
      "OL": 1584,
      "tt": 1585,
      "48": 1586,
      "Ġcompar": 1587,
      "Ġdemon": 1588,
      "Ġrot": 1589,
      "Ġmodels": 1590,
      "oid": 1591,
      "over": 1592,
      "Ġconsist": 1593,
      "::": 1594,
      "ĠAd": 1595,
      "iency": 1596,
      "ps": 1597,
      "Ġdirect": 1598,
      "Ġpresented": 1599,
      "ank": 1600,
      "47": 1601,
      "ung": 1602,
      "Ġresearch": 1603,
      "Ġrespectively": 1604,
      "32": 1605,
      "Ġpp": 1606,
      "Ġ40": 1607,
      "rix": 1608,
      "Ġcorrespon": 1609,
      "lection": 1610,
      "Ġcombin": 1611,
      "app": 1612,
      "other": 1613,
      "Ġprot": 1614,
      "NT": 1615,
      "apter": 1616,
      "Ġpoly": 1617,
      "Ð¾": 1618,
      "Ġprovide": 1619,
      "Ġdef": 1620,
      "ĠOF": 1621,
      "iver": 1622,
      "Ġimportant": 1623,
      "CO": 1624,
      "Ġdel": 1625,
      "Ġposition": 1626,
      "Ġtype": 1627,
      "Ġestim": 1628,
      "Ġacid": 1629,
      "Ġdevelopment": 1630,
      "Ġbel": 1631,
      "Ġtotal": 1632,
      "IG": 1633,
      "lass": 1634,
      "ention": 1635,
      "Ġadv": 1636,
      "wh": 1637,
      "ify": 1638,
      "cing": 1639,
      "31": 1640,
      "67": 1641,
      "Ġliquid": 1642,
      "Â·Â·": 1643,
      "ĠNo": 1644,
      "chie": 1645,
      "imes": 1646,
      "istics": 1647,
      "uration": 1648,
      "Ġtop": 1649,
      "led": 1650,
      "ores": 1651,
      "Ġdirection": 1652,
      "Ġvarious": 1653,
      "Ġveloc": 1654,
      "55": 1655,
      "ĠÌ": 1656,
      "ets": 1657,
      "Ġcontact": 1658,
      "lected": 1659,
      "ou": 1660,
      "Ġconcentration": 1661,
      "ape": 1662,
      "Ġstudies": 1663,
      "Ġcle": 1664,
      "Ġâ": 1665,
      "Ġer": 1666,
      "AP": 1667,
      "ĠSp": 1668,
      "peed": 1669,
      "Ġmeasurements": 1670,
      "Ġinteraction": 1671,
      "Ġsilic": 1672,
      "sp": 1673,
      "Ġperformed": 1674,
      "orph": 1675,
      "uel": 1676,
      "Re": 1677,
      "ott": 1678,
      "Ġstep": 1679,
      "Ġdispl": 1680,
      "Ġsepar": 1681,
      "Ġincreased": 1682,
      "Ġtests": 1683,
      "Ġthickness": 1684,
      "onic": 1685,
      "ison": 1686,
      "88": 1687,
      "Ġachie": 1688,
      "Ġproduct": 1689,
      "Ġtransfer": 1690,
      "CH": 1691,
      "pen": 1692,
      "ĠĊĠĊĠ": 1693,
      "faces": 1694,
      "ucle": 1695,
      "Ġhy": 1696,
      "49": 1697,
      "Ġbeam": 1698,
      "Ġplate": 1699,
      "Ġbeing": 1700,
      "Ġbecause": 1701,
      "gineering": 1702,
      "Ġax": 1703,
      "Ġpossible": 1704,
      "Ġparticles": 1705,
      "mod": 1706,
      "Ġsuper": 1707,
      "Ġchange": 1708,
      "46": 1709,
      "han": 1710,
      "Ġcrack": 1711,
      "Ġless": 1712,
      "upl": 1713,
      "rit": 1714,
      "Ġoptim": 1715,
      "Ġra": 1716,
      "Ġsimul": 1717,
      "cy": 1718,
      "opartic": 1719,
      "ĠChem": 1720,
      "Ġant": 1721,
      "less": 1722,
      "itude": 1723,
      "mit": 1724,
      "Ġresponse": 1725,
      "Ġside": 1726,
      "Ġmemb": 1727,
      "ĠâĪĴ": 1728,
      "sorption": 1729,
      "Ġhad": 1730,
      "aterials": 1731,
      "Ġdam": 1732,
      "etwork": 1733,
      "att": 1734,
      "Ġwithout": 1735,
      "Ġpeak": 1736,
      "Ġprovided": 1737,
      "Ġsug": 1738,
      "ĠPhys": 1739,
      "):": 1740,
      "Ġfrequency": 1741,
      "af": 1742,
      "Ġcost": 1743,
      "tage": 1744,
      "Ġthose": 1745,
      "Al": 1746,
      "Ġconstant": 1747,
      "Ġrem": 1748,
      "Ġfluid": 1749,
      "ructural": 1750,
      "Ġweight": 1751,
      "Ġapproxim": 1752,
      "Table": 1753,
      "ĠâĢĵ": 1754,
      "Ġregion": 1755,
      "Ġsignal": 1756,
      "Ġbehavior": 1757,
      "istic": 1758,
      "depend": 1759,
      "roscopy": 1760,
      "Ġprote": 1761,
      "Ġapplications": 1762,
      "Ġsynthe": 1763,
      "Ġfurther": 1764,
      "Ġcross": 1765,
      "Ġsolid": 1766,
      "Ġele": 1767,
      "ish": 1768,
      "Ġrepresent": 1769,
      "arly": 1770,
      "LE": 1771,
      "ĠĠĠĠĠĠĠĠĠĠĠĠĠĠĠĠĠĠĠĠĠĠĠĠĠĠĠĠĠĠĠĠ": 1772,
      "cell": 1773,
      "Ġabove": 1774,
      "ĠÂ°": 1775,
      "Ġforce": 1776,
      "Ġproblem": 1777,
      "AM": 1778,
      "Ġmaximum": 1779,
      "ĠThere": 1780,
      "ASA": 1781,
      "Ġformation": 1782,
      "Ġspecific": 1783,
      "idual": 1784,
      "Ġdefin": 1785,
      "cording": 1786,
      "Ġphys": 1787,
      "des": 1788,
      "Ġfail": 1789,
      "ï¿": 1790,
      "Ġgeneral": 1791,
      "Ġalong": 1792,
      "77": 1793,
      "Ġtens": 1794,
      "Ġprevious": 1795,
      "OS": 1796,
      "ived": 1797,
      "Ġ24": 1798,
      "aser": 1799,
      "Ġoptical": 1800,
      "ults": 1801,
      "Ġatom": 1802,
      "ĉčĠĠ": 1803,
      "veral": 1804,
      "Ġmagnetic": 1805,
      "Ġreal": 1806,
      "--------": 1807,
      "Ġclass": 1808,
      "ibility": 1809,
      "pared": 1810,
      "ube": 1811,
      "Ġ%": 1812,
      "Ġfollowing": 1813,
      "As": 1814,
      "Ġsuggest": 1815,
      "hyl": 1816,
      "Ġstructures": 1817,
      "Ġ<": 1818,
      "elf": 1819,
      "aj": 1820,
      "ĠSi": 1821,
      "inc": 1822,
      "ournal": 1823,
      "atory": 1824,
      "ĠÏ": 1825,
      "Ġcm": 1826,
      "Ġtak": 1827,
      "Ġback": 1828,
      "Ġprof": 1829,
      "Ġfabric": 1830,
      "Ġcoe": 1831,
      "Ġ60": 1832,
      "............": 1833,
      "Ġamo": 1834,
      "89": 1835,
      "echan": 1836,
      "ĠAll": 1837,
      "ĠAp": 1838,
      "Ġlif": 1839,
      "Ġpattern": 1840,
      "imensional": 1841,
      "Ġpur": 1842,
      "Ġrequired": 1843,
      "apt": 1844,
      "ged": 1845,
      "Ġwall": 1846,
      "sequ": 1847,
      "ĠÐ": 1848,
      "ĠSe": 1849,
      "gor": 1850,
      "stit": 1851,
      "Ġyield": 1852,
      "ailable": 1853,
      "mer": 1854,
      "Ġwave": 1855,
      "Ġtreatment": 1856,
      "ĠHe": 1857,
      "Ġvolume": 1858,
      "pre": 1859,
      "87": 1860,
      "Ġlocal": 1861,
      "Ġcarri": 1862,
      "Ġcatal": 1863,
      "Ġla": 1864,
      "iversity": 1865,
      "su": 1866,
      "Ġcapac": 1867,
      "iple": 1868,
      "Ġprop": 1869,
      "ENT": 1870,
      "ching": 1871,
      "Ġbody": 1872,
      ".-": 1873,
      "aging": 1874,
      "Ġelement": 1875,
      "MS": 1876,
      "Ġexperiments": 1877,
      "69": 1878,
      "Ġparticular": 1879,
      "Ġexist": 1880,
      "ector": 1881,
      "Ġamount": 1882,
      "Ġmany": 1883,
      "Ġorgan": 1884,
      "Ġproposed": 1885,
      "uted": 1886,
      "osp": 1887,
      "Ġke": 1888,
      "Ġenvironment": 1889,
      "au": 1890,
      "Ġassoci": 1891,
      "erest": 1892,
      "ven": 1893,
      "Ġdetermined": 1894,
      "Ġvelocity": 1895,
      "Ġshowed": 1896,
      "Ġ*": 1897,
      "Ġremo": 1898,
      "Ġefficiency": 1899,
      "64": 1900,
      "Ġrequire": 1901,
      "Ġperiod": 1902,
      "Ġfram": 1903,
      "Ġseveral": 1904,
      "lic": 1905,
      "Ġcer": 1906,
      "Ġmechanical": 1907,
      "Ġconver": 1908,
      "Ġmatrix": 1909,
      "inter": 1910,
      "Ġband": 1911,
      "sol": 1912,
      "ygen": 1913,
      "Ġdom": 1914,
      "Ġstron": 1915,
      "Ġchemical": 1916,
      "Ġinflu": 1917,
      "cedure": 1918,
      "Ġsw": 1919,
      "ĠAN": 1920,
      "Ġrele": 1921,
      "Ch": 1922,
      "PS": 1923,
      "AB": 1924,
      "Ġequation": 1925,
      "ext": 1926,
      "Ġcoating": 1927,
      "Ġdep": 1928,
      "ĠSc": 1929,
      "abor": 1930,
      "crete": 1931,
      "eh": 1932,
      "Ġallo": 1933,
      "ï£": 1934,
      "Ġaccur": 1935,
      "char": 1936,
      "Ġassum": 1937,
      "ĠLi": 1938,
      "Ġincluding": 1939,
      "ATION": 1940,
      "Ġdescribed": 1941,
      "Ġcontroll": 1942,
      "nces": 1943,
      "Ġchanges": 1944,
      "Ġfilms": 1945,
      "Ġfix": 1946,
      "Ġnetwork": 1947,
      "68": 1948,
      "ds": 1949,
      "Ġloss": 1950,
      "St": 1951,
      "Ġyear": 1952,
      "Ġstandard": 1953,
      "Ġinitial": 1954,
      "This": 1955,
      "Ġcycl": 1956,
      "Ġlimit": 1957,
      "mission": 1958,
      "air": 1959,
      "04": 1960,
      "Ġfactor": 1961,
      "ĠMet": 1962,
      "ances": 1963,
      "Ġshear": 1964,
      "Ġconsidered": 1965,
      "atively": 1966,
      "Ġgra": 1967,
      "Ġgre": 1968,
      "Ġfree": 1969,
      "Ġcalculated": 1970,
      "izing": 1971,
      "MP": 1972,
      "where": 1973,
      "Ġgeomet": 1974,
      "Cl": 1975,
      "dependent": 1976,
      "Ġimpact": 1977,
      "Ġnormal": 1978,
      "stand": 1979,
      "Ġnanopartic": 1980,
      "Ġaverage": 1981,
      "ymmet": 1982,
      "Ġdec": 1983,
      "ĠSh": 1984,
      "abil": 1985,
      "arm": 1986,
      "az": 1987,
      "ling": 1988,
      "ror": 1989,
      "Ġspeed": 1990,
      "ĠAt": 1991,
      "Ġapplication": 1992,
      "lex": 1993,
      "41": 1994,
      "Ġthin": 1995,
      "Ġincreasing": 1996,
      "pol": 1997,
      "Ġsubstrate": 1998,
      "43": 1999,
      "78": 2000,
      "ĠTechn": 2001,
      "ĠBi": 2002,
      "Ġnumer": 2003,
      "ke": 2004,
      "Ġgood": 2005,
      "Ġsource": 2006,
      "Ġfour": 2007,
      "SI": 2008,
      "Ġlinear": 2009,
      "42": 2010,
      "apor": 2011,
      "Ġcool": 2012,
      "lor": 2013,
      "Ðµ": 2014,
      "Ġintro": 2015,
      "79": 2016,
      "ump": 2017,
      "Ġmembran": 2018,
      "etter": 2019,
      "Ġangle": 2020,
      "mm": 2021,
      "Ġunit": 2022,
      "63": 2023,
      "ĠAc": 2024,
      "aling": 2025,
      "Ġhel": 2026,
      "very": 2027,
      "Ġte": 2028,
      "ryst": 2029,
      "Ġresistance": 2030,
      "Ġcomponents": 2031,
      "mine": 2032,
      "Ġproduction": 2033,
      "ogen": 2034,
      "Ġconsider": 2035,
      "Ġtemperatures": 2036,
      "aving": 2037,
      "Ġhum": 2038,
      "Ġcaus": 2039,
      "Ġoff": 2040,
      "ĠElect": 2041,
      "cm": 2042,
      "ably": 2043,
      "Ġfac": 2044,
      "Ġdiameter": 2045,
      "rated": 2046,
      "Ð¸": 2047,
      "Ġcoupl": 2048,
      "ayer": 2049,
      "0000": 2050,
      "//": 2051,
      "Ġcre": 2052,
      "ĠMod": 2053,
      "Ġreported": 2054,
      "Ġimage": 2055,
      "Ġcontinu": 2056,
      "strated": 2057,
      "Ġmechanism": 2058,
      "Ġopen": 2059,
      "Ġreact": 2060,
      "Ġstudied": 2061,
      "Ġ\\": 2062,
      "AG": 2063,
      "âĢĶ": 2064,
      "Ġreduced": 2065,
      "ploy": 2066,
      "ables": 2067,
      "Ġprogram": 2068,
      "Ġpath": 2069,
      "ĠĠĠĠĠ": 2070,
      "Ð°": 2071,
      "ĠPl": 2072,
      "98": 2073,
      "ïĢ": 2074,
      "Ġappe": 2075,
      "],": 2076,
      "mic": 2077,
      "Ġtechnique": 2078,
      "Ġformed": 2079,
      "Ġanalyz": 2080,
      "ators": 2081,
      "ually": 2082,
      "ame": 2083,
      "bit": 2084,
      "Ġexperiment": 2085,
      "that": 2086,
      "SC": 2087,
      "itor": 2088,
      "Ġplas": 2089,
      ");": 2090,
      "Ġacc": 2091,
      "Ġparticle": 2092,
      "Ġcases": 2093,
      "Si": 2094,
      "Ġprim": 2095,
      "urface": 2096,
      "Ġeffective": 2097,
      "structure": 2098,
      "oph": 2099,
      "Ġmust": 2100,
      "Ġfeature": 2101,
      "Ġcorrel": 2102,
      "gorith": 2103,
      "RE": 2104,
      "Ġ..": 2105,
      "Ġavailable": 2106,
      "Ġsat": 2107,
      "ĠTrans": 2108,
      "Ġmodul": 2109,
      "Ġmode": 2110,
      "ither": 2111,
      "Ġtr": 2112,
      "Ġobject": 2113,
      "Ġinvestigated": 2114,
      ",,": 2115,
      "Ġfuel": 2116,
      "Ġfailure": 2117,
      "Ġmuch": 2118,
      "ï¿½": 2119,
      "Con": 2120,
      "62": 2121,
      "Ġill": 2122,
      "Ġtheory": 2123,
      "amp": 2124,
      "ocus": 2125,
      "though": 2126,
      "Ġtransition": 2127,
      "racture": 2128,
      "Ġcharacteristics": 2129,
      "ream": 2130,
      "cont": 2131,
      "arget": 2132,
      "Ġwid": 2133,
      "ored": 2134,
      "Ġpass": 2135,
      "Ġvoltage": 2136,
      "ĠLe": 2137,
      "itro": 2138,
      "read": 2139,
      "Ġreduction": 2140,
      "Ġpul": 2141,
      "61": 2142,
      "Ġstrong": 2143,
      "Ġlaser": 2144,
      "itation": 2145,
      "pected": 2146,
      "vers": 2147,
      "73": 2148,
      "Ġassociated": 2149,
      "oh": 2150,
      "Ġinvol": 2151,
      "ruction": 2152,
      "Ġchann": 2153,
      "Ġ22": 2154,
      "Ġeven": 2155,
      "cal": 2156,
      "ĠTable": 2157,
      "acement": 2158,
      "Ġexample": 2159,
      "Ċĉ": 2160,
      "idation": 2161,
      "Ġnear": 2162,
      "ks": 2163,
      "Ġdetail": 2164,
      "bust": 2165,
      "Ġ35": 2166,
      "Ġsteel": 2167,
      "umm": 2168,
      "Ġdiscussed": 2169,
      "Ġinterface": 2170,
      "AD": 2171,
      "Ġes": 2172,
      "Ð½": 2173,
      "ble": 2174,
      "cules": 2175,
      "Ġmeans": 2176,
      "Ġtechniques": 2177,
      "ĠFe": 2178,
      "Ġfo": 2179,
      "dis": 2180,
      "ĠMe": 2181,
      "Ġ....": 2182,
      "Ġhand": 2183,
      "ges": 2184,
      "ton": 2185,
      "Ġprocedure": 2186,
      "Ġpresence": 2187,
      "Ġmean": 2188,
      "not": 2189,
      "ains": 2190,
      "Ġult": 2191,
      "ĠIN": 2192,
      "Ġtesting": 2193,
      "ires": 2194,
      "Ġcorresponding": 2195,
      "we": 2196,
      "que": 2197,
      "imen": 2198,
      "Ġcop": 2199,
      "Ġbefore": 2200,
      "Ġactiv": 2201,
      "Ġcomposite": 2202,
      "Ġglass": 2203,
      "Ġneg": 2204,
      "ival": 2205,
      "imin": 2206,
      "71": 2207,
      "ING": 2208,
      "ccess": 2209,
      "Ġaffect": 2210,
      "ufact": 2211,
      "mon": 2212,
      "alled": 2213,
      "Ġlevels": 2214,
      "ero": 2215,
      "~~": 2216,
      "ĠÂ±": 2217,
      "ision": 2218,
      "flu": 2219,
      "rug": 2220,
      "ressed": 2221,
      "Ġterms": 2222,
      "Ġgu": 2223,
      "Ġsimple": 2224,
      "Ġboundary": 2225,
      "from": 2226,
      "Ġbuil": 2227,
      "Ġhydrogen": 2228,
      "Ġdevices": 2229,
      "ĠAr": 2230,
      "ïģ": 2231,
      "Ġport": 2232,
      "Ġbar": 2233,
      "Ġfiber": 2234,
      "ajor": 2235,
      "ended": 2236,
      "oft": 2237,
      "Ġbo": 2238,
      "Ġsem": 2239,
      "Ġoutput": 2240,
      "ours": 2241,
      "Ġcomposition": 2242,
      "76": 2243,
      "rag": 2244,
      "Ġinc": 2245,
      "Ġhard": 2246,
      "Ġconfig": 2247,
      "Ġdifference": 2248,
      "Ġtimes": 2249,
      "verse": 2250,
      "ĠâĪ": 2251,
      "hip": 2252,
      "jection": 2253,
      "ĠPol": 2254,
      "59": 2255,
      "ots": 2256,
      "Ġradi": 2257,
      "ĠBe": 2258,
      "ĠST": 2259,
      "Ġtool": 2260,
      "72": 2261,
      "Ġ28": 2262,
      "Ġvia": 2263,
      "ĠĠĠĠĠĠ": 2264,
      "58": 2265,
      "trans": 2266,
      "ĠJournal": 2267,
      "itu": 2268,
      "Ġoxygen": 2269,
      "Ġ21": 2270,
      "Ġbase": 2271,
      "IL": 2272,
      "Ġbecom": 2273,
      "Ġsurfaces": 2274,
      "Ġsignificantly": 2275,
      "Ġbond": 2276,
      "Ġrelative": 2277,
      "Ġdetermine": 2278,
      "ns": 2279,
      "Ġoperation": 2280,
      "Ġhow": 2281,
      "Ġnucle": 2282,
      "ibration": 2283,
      "ĠII": 2284,
      "ta": 2285,
      "ĠResearch": 2286,
      "Ġinterest": 2287,
      "temperature": 2288,
      "ĠTest": 2289,
      "onal": 2290,
      "ences": 2291,
      "Ġsolar": 2292,
      "Ġactivity": 2293,
      "ĠTi": 2294,
      "acy": 2295,
      "ducing": 2296,
      "dimensional": 2297,
      "Ġgroups": 2298,
      "Ġright": 2299,
      "lished": 2300,
      "Ġ................................": 2301,
      "Ġarran": 2302,
      "Ġpatients": 2303,
      "CC": 2304,
      "Ġconnected": 2305,
      "Ġdoes": 2306,
      "Ġthus": 2307,
      "Ġ>": 2308,
      "equ": 2309,
      "Ġassemb": 2310,
      "Ġcrit": 2311,
      "ras": 2312,
      "Ġinput": 2313,
      "Ġcompris": 2314,
      "Ġmeasurement": 2315,
      "Ġcontent": 2316,
      "Ġoxide": 2317,
      "Ġsimulation": 2318,
      "Ġstructural": 2319,
      "rum": 2320,
      "Ġprocesses": 2321,
      "iform": 2322,
      "Ġadj": 2323,
      "idence": 2324,
      "Ġorig": 2325,
      "Pa": 2326,
      "aled": 2327,
      "ottom": 2328,
      "ynamics": 2329,
      "ument": 2330,
      "Ġexhib": 2331,
      "bl": 2332,
      "Ġwa": 2333,
      "mal": 2334,
      "iving": 2335,
      "Ġknown": 2336,
      "Ġalgorith": 2337,
      "ĠTH": 2338,
      "Ġir": 2339,
      "Ġmixture": 2340,
      "linear": 2341,
      "ulated": 2342,
      "Ġshape": 2343,
      "Ġadd": 2344,
      "74": 2345,
      "Ġbelow": 2346,
      "amber": 2347,
      "Ġcircu": 2348,
      "dustr": 2349,
      "ses": 2350,
      "Ġprovides": 2351,
      "osph": 2352,
      "Ġcharge": 2353,
      "Ġemission": 2354,
      "Ġpor": 2355,
      "rations": 2356,
      "Ġdown": 2357,
      "Ġvers": 2358,
      "08": 2359,
      "ÑĤ": 2360,
      "sing": 2361,
      "53": 2362,
      "ulf": 2363,
      "Ġbin": 2364,
      "sequent": 2365,
      "Ġloading": 2366,
      "Ġprec": 2367,
      "Ġpercent": 2368,
      "06": 2369,
      "omen": 2370,
      "Ġmach": 2371,
      "ĠĠĊĠ": 2372,
      "pose": 2373,
      "istry": 2374,
      "iffere": 2375,
      "isms": 2376,
      "arch": 2377,
      "Ġincreases": 2378,
      "which": 2379,
      "Ġnanoparticles": 2380,
      "Ġexc": 2381,
      "Ġnecess": 2382,
      "ĠUniversity": 2383,
      "right": 2384,
      "ww": 2385,
      "light": 2386,
      "Ġutil": 2387,
      "Ġblock": 2388,
      "Ġresulting": 2389,
      "Ġrelated": 2390,
      "aced": 2391,
      "Ġ^": 2392,
      "Ġengine": 2393,
      "Ġgrain": 2394,
      "56": 2395,
      "Ġmolecular": 2396,
      "hing": 2397,
      "Ġfocus": 2398,
      "Ġshort": 2399,
      "was": 2400,
      "Ġcompound": 2401,
      "ehic": 2402,
      "bal": 2403,
      "ule": 2404,
      "Ġelements": 2405,
      "OT": 2406,
      "ware": 2407,
      "Ġsince": 2408,
      "MA": 2409,
      "Ġagain": 2410,
      "uble": 2411,
      "96": 2412,
      "acu": 2413,
      "Ġcore": 2414,
      "Ġphen": 2415,
      "Ġfigure": 2416,
      "ĠNan": 2417,
      "54": 2418,
      "aking": 2419,
      ")-": 2420,
      "raft": 2421,
      "osity": 2422,
      "comp": 2423,
      "Ġrecent": 2424,
      "Ġelectric": 2425,
      "Ġtransport": 2426,
      "EG": 2427,
      "52": 2428,
      "Ġmajor": 2429,
      "Ġobserv": 2430,
      "Ġ23": 2431,
      "Ġlarger": 2432,
      "bed": 2433,
      "86": 2434,
      "PL": 2435,
      "Ġelectrode": 2436,
      "Ġdie": 2437,
      "97": 2438,
      "Ġproduced": 2439,
      "Ġsensor": 2440,
      "Ġstability": 2441,
      "way": 2442,
      "ending": 2443,
      "Ġseen": 2444,
      "zz": 2445,
      "ĠAg": 2446,
      "Ġret": 2447,
      "________": 2448,
      "medi": 2449,
      "Ġ80": 2450,
      "more": 2451,
      "count": 2452,
      "Ġspectra": 2453,
      "51": 2454,
      "Ġrates": 2455,
      "brid": 2456,
      "Ġlayers": 2457,
      "ublic": 2458,
      "Ġsequ": 2459,
      "ason": 2460,
      "ĠOn": 2461,
      "Ġrelations": 2462,
      "Ġequations": 2463,
      "cial": 2464,
      "Ġoil": 2465,
      "ID": 2466,
      "Ġstat": 2467,
      "ĠDes": 2468,
      "Ġtechnology": 2469,
      "Ġpan": 2470,
      "load": 2471,
      "aps": 2472,
      "Ġscale": 2473,
      "mun": 2474,
      "cence": 2475,
      "Ġfactors": 2476,
      "Ġclos": 2477,
      "Ġcritical": 2478,
      "57": 2479,
      "Ġcommon": 2480,
      "arbon": 2481,
      "Ġsilicon": 2482,
      "Ġsolutions": 2483,
      "Ġcut": 2484,
      "Ġgraph": 2485,
      "Ġaround": 2486,
      "Ġprom": 2487,
      "Ġcyl": 2488,
      "nel": 2489,
      "IR": 2490,
      "Ġquality": 2491,
      "OD": 2492,
      "Ġfraction": 2493,
      "eler": 2494,
      "84": 2495,
      "ĠScience": 2496,
      "Ġprepared": 2497,
      "IM": 2498,
      "col": 2499,
      "ĠIm": 2500,
      "EE": 2501,
      "ĠÎ¼m": 2502,
      "Ġtarget": 2503,
      "Ġampl": 2504,
      "Ġthem": 2505,
      "Ġprotein": 2506,
      "Ġsuccess": 2507,
      "Ġfixed": 2508,
      "TS": 2509,
      "93": 2510,
      "Ġalumin": 2511,
      "utes": 2512,
      "alle": 2513,
      "ste": 2514,
      "ĠAnal": 2515,
      "raw": 2516,
      "Ġpow": 2517,
      "orage": 2518,
      "Ġeither": 2519,
      "off": 2520,
      "land": 2521,
      "Ġmulti": 2522,
      "ĠCON": 2523,
      "ift": 2524,
      "ured": 2525,
      "ĠSch": 2526,
      "Ġ90": 2527,
      "Ġdamage": 2528,
      "ulk": 2529,
      "Ġbetter": 2530,
      "Ġpost": 2531,
      "Ġtypes": 2532,
      "83": 2533,
      "ening": 2534,
      "Ġep": 2535,
      "ert": 2536,
      "ĠMic": 2537,
      "ividual": 2538,
      "Ġhowever": 2539,
      "Ġwhe": 2540,
      "Ġdefined": 2541,
      "Ġsubject": 2542,
      "ributed": 2543,
      "Ġtheore": 2544,
      "uture": 2545,
      "Ġcomponent": 2546,
      "82": 2547,
      "****": 2548,
      "Ġbre": 2549,
      "Ġimages": 2550,
      "Ġyears": 2551,
      "ïĥ": 2552,
      "oo": 2553,
      "Ġfracture": 2554,
      "Ġproject": 2555,
      "Ġdetection": 2556,
      "aneous": 2557,
      "81": 2558,
      "OO": 2559,
      "ote": 2560,
      "izes": 2561,
      "ÑĢ": 2562,
      "Ġparameter": 2563,
      "Ġhaving": 2564,
      "Ġ--": 2565,
      "Ġeas": 2566,
      "Ġpract": 2567,
      "Ġcomparison": 2568,
      "Ġinfluence": 2569,
      "agnetic": 2570,
      "Ġassess": 2571,
      "Ġupper": 2572,
      "92": 2573,
      "Ġreview": 2574,
      "Ġproblems": 2575,
      "94": 2576,
      "atural": 2577,
      "iles": 2578,
      "Ġnumerical": 2579,
      "Ġtested": 2580,
      "Ġprocessing": 2581,
      "ĠAND": 2582,
      "Ġcoefficient": 2583,
      "91": 2584,
      "ld": 2585,
      "Ġlike": 2586,
      "ique": 2587,
      "ĠCu": 2588,
      "xt": 2589,
      "strates": 2590,
      "ï¿½ï¿½": 2591,
      "arent": 2592,
      "Ġfit": 2593,
      "Ġcatalyst": 2594,
      "ĠVol": 2595,
      "Ġexpected": 2596,
      "Ġ;": 2597,
      "ense": 2598,
      "Ð¾Ð": 2599,
      "UM": 2600,
      "ĠïĢ": 2601,
      "Hz": 2602,
      "Ps": 2603,
      "Ġspecimens": 2604,
      "tle": 2605,
      "Ġconcept": 2606,
      "Ġschem": 2607,
      "Ġtiss": 2608,
      "Ġrece": 2609,
      "Ġhere": 2610,
      "Ġpredict": 2611,
      "vement": 2612,
      "ethyl": 2613,
      "Ġflux": 2614,
      "ĠNASA": 2615,
      "Ġpoints": 2616,
      "SA": 2617,
      "Ġfeed": 2618,
      "Ġmembrane": 2619,
      "://": 2620,
      "Ġtube": 2621,
      "Ġunderstand": 2622,
      "ĠCent": 2623,
      "Ġmes": 2624,
      "ĠSystem": 2625,
      "Ġturb": 2626,
      "ternal": 2627,
      "ography": 2628,
      "Ġstart": 2629,
      "ital": 2630,
      "ah": 2631,
      "Ġelectrical": 2632,
      "ised": 2633,
      "can": 2634,
      "Ġdistance": 2635,
      "Ġtaken": 2636,
      "ceed": 2637,
      "IP": 2638,
      "MR": 2639,
      "ĠĊĠĊĠĊĠĊĠĊĠĊĠĊĠĊ": 2640,
      "Ġelastic": 2641,
      "hene": 2642,
      "Ġestab": 2643,
      "Ġcrystal": 2644,
      ".)": 2645,
      "vol": 2646,
      "Ġview": 2647,
      "An": 2648,
      "Ġfunctional": 2649,
      "olds": 2650,
      "Ġfinite": 2651,
      "Ġvehic": 2652,
      "Ġmanufact": 2653,
      "lying": 2654,
      "Ġhuman": 2655,
      "ience": 2656,
      "infor": 2657,
      "acuum": 2658,
      "Ġdynamic": 2659,
      "Ġleast": 2660,
      "ĠEngineering": 2661,
      "Ġions": 2662,
      "Ġphysical": 2663,
      "EP": 2664,
      "Ġmultiple": 2665,
      "Ġrun": 2666,
      "ĠFurther": 2667,
      "ogene": 2668,
      "Ġway": 2669,
      "Ġ26": 2670,
      "Ġmark": 2671,
      "ension": 2672,
      "rast": 2673,
      "Ġred": 2674,
      "ĠWith": 2675,
      "Ġemploy": 2676,
      "anning": 2677,
      "Ġself": 2678,
      "ached": 2679,
      "OC": 2680,
      "Com": 2681,
      "andom": 2682,
      "alt": 2683,
      "sub": 2684,
      "Ġrec": 2685,
      "Ġwind": 2686,
      "Ġplasma": 2687,
      "Ġcircuit": 2688,
      "ĠSol": 2689,
      "velength": 2690,
      "Ġintensity": 2691,
      "son": 2692,
      "Ġimproved": 2693,
      "Ġcommun": 2694,
      "fl": 2695,
      "posure": 2696,
      "perimental": 2697,
      "Ġreve": 2698,
      "Ġcarried": 2699,
      "system": 2700,
      "Ġdiffusion": 2701,
      "PC": 2702,
      "Ġsoft": 2703,
      "Ġseries": 2704,
      "ĠMaterials": 2705,
      "ymers": 2706,
      "Ġactive": 2707,
      "Ġkin": 2708,
      "Ġcorre": 2709,
      "Ñģ": 2710,
      "ĠAb": 2711,
      "Ġdimens": 2712,
      "set": 2713,
      "Ġcapacity": 2714,
      "ĠGe": 2715,
      "pr": 2716,
      "Ġadvant": 2717,
      "Ġcontaining": 2718,
      "Ġ70": 2719,
      "ĠWh": 2720,
      "Ġpolar": 2721,
      "URE": 2722,
      "Ġread": 2723,
      "Ġrest": 2724,
      "owled": 2725,
      "ether": 2726,
      "ĠNi": 2727,
      "Ġrole": 2728,
      "di": 2729,
      "nan": 2730,
      "reated": 2731,
      "Ġreference": 2732,
      "charge": 2733,
      "ched": 2734,
      "ask": 2735,
      "Ġheating": 2736,
      "inally": 2737,
      "Ġhighly": 2738,
      "Ġcycle": 2739,
      "ventional": 2740,
      "lin": 2741,
      "SS": 2742,
      "Ġcurve": 2743,
      "Ġ$\\": 2744,
      "like": 2745,
      "ïĤ": 2746,
      "craft": 2747,
      "OH": 2748,
      "Ġparts": 2749,
      "ĠEl": 2750,
      "Ġapproximately": 2751,
      "dex": 2752,
      "aff": 2753,
      "loc": 2754,
      "ubes": 2755,
      "time": 2756,
      "Ġgo": 2757,
      "ordin": 2758,
      "Ġ27": 2759,
      "Ġdesigned": 2760,
      "otrop": 2761,
      "ters": 2762,
      "Ġmem": 2763,
      "Ġmy": 2764,
      "Ġspecies": 2765,
      "UL": 2766,
      "ĠWhen": 2767,
      "Ġsk": 2768,
      "aches": 2769,
      "ĠĊĠĠ": 2770,
      "Ġ45": 2771,
      "ained": 2772,
      "spec": 2773,
      "Ġbottom": 2774,
      "ĠSim": 2775,
      "Ġplan": 2776,
      "Ġorient": 2777,
      "oment": 2778,
      "Ġconducted": 2779,
      "ĠTherefore": 2780,
      "Ġinclude": 2781,
      "Ġgreat": 2782,
      "pped": 2783,
      "????????": 2784,
      "Ġfunctions": 2785,
      "clos": 2786,
      "rior": 2787,
      "Ġgreater": 2788,
      "ãģ": 2789,
      "Ġmol": 2790,
      ",\"": 2791,
      "ai": 2792,
      "Ġexamin": 2793,
      "Ġreson": 2794,
      "ging": 2795,
      "ĠPer": 2796,
      "lust": 2797,
      "Ġfull": 2798,
      "Ġdepth": 2799,
      "Ġindustr": 2800,
      "âĢ¢âĢ¢": 2801,
      "icult": 2802,
      "itivity": 2803,
      "Ġlife": 2804,
      "Ġedge": 2805,
      "ett": 2806,
      "allel": 2807,
      "Ġflex": 2808,
      "Î¼": 2809,
      "Ġscre": 2810,
      "ĠSP": 2811,
      "Ġ................................................................................................": 2812,
      "Co": 2813,
      "ided": 2814,
      "Ġspectrum": 2815,
      "Ġchamber": 2816,
      "Ġĉ": 2817,
      "Ġstill": 2818,
      "Ġfeatures": 2819,
      "Ġplane": 2820,
      "Ġgen": 2821,
      "SP": 2822,
      "Ġminim": 2823,
      "Ġabsorption": 2824,
      "Ġindividual": 2825,
      "Ġ!": 2826,
      "omer": 2827,
      "alth": 2828,
      "Se": 2829,
      "For": 2830,
      "Ġimplement": 2831,
      "Ġalloy": 2832,
      "ĠResults": 2833,
      "Pro": 2834,
      "echanical": 2835,
      ",âĢĿ": 2836,
      "Ġmolecules": 2837,
      "greg": 2838,
      "encies": 2839,
      "ĠAm": 2840,
      "ĠAfter": 2841,
      "duces": 2842,
      "Ġpi": 2843,
      "ĠĠĠĠĠĠĠ": 2844,
      "Ġquantum": 2845,
      "Ġillu": 2846,
      "Ġspecimen": 2847,
      "corpor": 2848,
      "To": 2849,
      "ler": 2850,
      "Ġcrystall": 2851,
      "07": 2852,
      "igue": 2853,
      "Ġdemonstrated": 2854,
      "Ġmake": 2855,
      "Ġnecessary": 2856,
      "Ph": 2857,
      "Ġspin": 2858,
      "Ġstates": 2859,
      "ologies": 2860,
      "aboratory": 2861,
      "Ġchannel": 2862,
      "amples": 2863,
      "do": 2864,
      "Ġgenerated": 2865,
      "most": 2866,
      "Ġauth": 2867,
      "Ġconcrete": 2868,
      "Ġcenter": 2869,
      "US": 2870,
      "Ġq": 2871,
      "Ġdecrease": 2872,
      "ĠZh": 2873,
      "Ġdrug": 2874,
      "hydro": 2875,
      "Ġtherefore": 2876,
      "Ġground": 2877,
      "section": 2878,
      "ĠNew": 2879,
      "sim": 2880,
      "Fe": 2881,
      "ope": 2882,
      "Ġhal": 2883,
      "Ġadditional": 2884,
      "Ġdeposition": 2885,
      "Ġaccording": 2886,
      "Ġachieved": 2887,
      "uc": 2888,
      "CT": 2889,
      "rust": 2890,
      "Ġsoil": 2891,
      "enz": 2892,
      "Ġfat": 2893,
      "tained": 2894,
      "odes": 2895,
      "Ġreduce": 2896,
      "Ġrelationship": 2897,
      "ĠThus": 2898,
      "ĠIf": 2899,
      "chemical": 2900,
      "rin": 2901,
      "Ġradiation": 2902,
      "ĠCH": 2903,
      "ĠDis": 2904,
      "arth": 2905,
      "ociety": 2906,
      "%)": 2907,
      "type": 2908,
      "Ġupon": 2909,
      "rapid": 2910,
      "Ġefficient": 2911,
      "ĠCor": 2912,
      "Ġgrad": 2913,
      "riction": 2914,
      "Ġdisper": 2915,
      "Ġ300": 2916,
      "Ġroom": 2917,
      "oper": 2918,
      "Ġareas": 2919,
      "raphene": 2920,
      "aring": 2921,
      "CM": 2922,
      "stant": 2923,
      "aut": 2924,
      "Ġstorage": 2925,
      "Ġpack": 2926,
      "CD": 2927,
      "vice": 2928,
      "resh": 2929,
      "Ġ-.": 2930,
      "Ġinternal": 2931,
      "ĠSu": 2932,
      "Ġconductivity": 2933,
      "oxy": 2934,
      "ternational": 2935,
      "Ġhol": 2936,
      "CE": 2937,
      "ĠpH": 2938,
      "Ġlines": 2939,
      "Ġris": 2940,
      "Ġbulk": 2941,
      "Ġdepos": 2942,
      "Ġfind": 2943,
      "Ġtoward": 2944,
      "Ġinvention": 2945,
      "Ġfinal": 2946,
      "Ġbro": 2947,
      "OF": 2948,
      "pot": 2949,
      "Ġprevent": 2950,
      "Ġtem": 2951,
      "anced": 2952,
      "Ġprimary": 2953,
      "Ġimprove": 2954,
      "Ġjoint": 2955,
      "Ti": 2956,
      "Ġselected": 2957,
      "Ġdeformation": 2958,
      "Ġ29": 2959,
      "ild": 2960,
      "Ġtun": 2961,
      "Ġ................": 2962,
      "Ġsimulations": 2963,
      "ilib": 2964,
      "aged": 2965,
      "Ġstiff": 2966,
      "Ġdefect": 2967,
      "Ġfew": 2968,
      "Ġcurves": 2969,
      "Ġorganic": 2970,
      "Ġfill": 2971,
      "Ġcontinuous": 2972,
      "TR": 2973,
      "paration": 2974,
      "osis": 2975,
      "rateg": 2976,
      "ĠOr": 2977,
      "Ġerror": 2978,
      "Ġselect": 2979,
      "Ġdegree": 2980,
      "Ġcult": 2981,
      "Ġarranged": 2982,
      "Ġrecor": 2983,
      "Ġmorph": 2984,
      "ĠSpace": 2985,
      "any": 2986,
      "Ġuniform": 2987,
      "Ġadded": 2988,
      "ifferent": 2989,
      "mosp": 2990,
      "ash": 2991,
      "Ġpump": 2992,
      "bo": 2993,
      "CL": 2994,
      "Ġexpression": 2995,
      "Ġide": 2996,
      "Ġtri": 2997,
      "trol": 2998,
      "Ġlater": 2999,
      "Ġsus": 3000,
      "---": 3001,
      "hel": 3002,
      "ĠBy": 3003,
      "IV": 3004,
      "Ġplot": 3005,
      "agement": 3006,
      "icon": 3007,
      "omic": 3008,
      "Ġ2010": 3009,
      "Ġmel": 3010,
      "CS": 3011,
      "ĠMore": 3012,
      "ĠRep": 3013,
      "rat": 3014,
      "sk": 3015,
      "Ġreser": 3016,
      "ands": 3017,
      "Ġautom": 3018,
      "Ġrelatively": 3019,
      "Ġcooling": 3020,
      "lood": 3021,
      "Ġinteractions": 3022,
      "Ġalgorithm": 3023,
      "clus": 3024,
      "Ġlimited": 3025,
      "Ġhours": 3026,
      "Ġ500": 3027,
      "no": 3028,
      "Ġpers": 3029,
      "Ġgeometry": 3030,
      "Ġmagnet": 3031,
      "Ġoperating": 3032,
      "Ġ32": 3033,
      "ront": 3034,
      "Ġdetect": 3035,
      "Ġcomprises": 3036,
      "iterature": 3037,
      "rium": 3038,
      "Ġrapid": 3039,
      "aries": 3040,
      "Ġnatural": 3041,
      "Ġmotion": 3042,
      "Ġdifficult": 3043,
      "were": 3044,
      "vant": 3045,
      "09": 3046,
      "Ġïģ": 3047,
      "Ġweld": 3048,
      "ĠCal": 3049,
      ".:": 3050,
      "inder": 3051,
      "500": 3052,
      "electric": 3053,
      "allen": 3054,
      "attering": 3055,
      "Ġbest": 3056,
      "Ġutility": 3057,
      "rosion": 3058,
      "flow": 3059,
      "ird": 3060,
      "water": 3061,
      "Ġpositive": 3062,
      "Ã³": 3063,
      "Ġsmaller": 3064,
      "Ġhom": 3065,
      "Ġ#": 3066,
      "ype": 3067,
      "Ġproduce": 3068,
      "ÂŃ": 3069,
      "Ġanalys": 3070,
      "AA": 3071,
      "Â·Â·Â·Â·": 3072,
      "CR": 3073,
      "Ġmedium": 3074,
      "Ġdrop": 3075,
      "itable": 3076,
      "Ġrandom": 3077,
      "Ġimaging": 3078,
      "Ġconfiguration": 3079,
      "Ġpie": 3080,
      "phase": 3081,
      "Un": 3082,
      "Ġallows": 3083,
      "rie": 3084,
      "Ġpop": 3085,
      "hance": 3086,
      "Ġdirectly": 3087,
      "Ġdid": 3088,
      "Ġclust": 3089,
      "101": 3090,
      "It": 3091,
      "Ġneut": 3092,
      "Ġnovel": 3093,
      "Ġinside": 3094,
      "plications": 3095,
      "ising": 3096,
      "Ġplastic": 3097,
      "TH": 3098,
      "kn": 3099,
      "Ġfuture": 3100,
      "den": 3101,
      "Ġcav": 3102,
      "side": 3103,
      "see": 3104,
      "ipment": 3105,
      "Ġ2011": 3106,
      "clusion": 3107,
      "ĠCol": 3108,
      "Ġregions": 3109,
      "Ġhist": 3110,
      "uro": 3111,
      "Ġ|": 3112,
      "Ġcolum": 3113,
      "bers": 3114,
      "ription": 3115,
      "Ġsynthesis": 3116,
      "Ġstage": 3117,
      "ĠPRO": 3118,
      "Ġaccount": 3119,
      "Ġvariation": 3120,
      "order": 3121,
      "Ġ31": 3122,
      "Ġstable": 3123,
      "Ġindicate": 3124,
      "))": 3125,
      "Ġring": 3126,
      "Ġartic": 3127,
      "Ġaltern": 3128,
      "Ġdry": 3129,
      "Ġ2009": 3130,
      "ĠEqu": 3131,
      "Ġvary": 3132,
      "Ġhole": 3133,
      "ĠCell": 3134,
      "aves": 3135,
      "Ġchem": 3136,
      "ĠZn": 3137,
      "Ġwide": 3138,
      "Ġkey": 3139,
      "Ġcoll": 3140,
      "Ġexposure": 3141,
      "Ġzero": 3142,
      "Ġenhan": 3143,
      "FT": 3144,
      "Ġbehavi": 3145,
      "Ġtransmission": 3146,
      "na": 3147,
      "}$": 3148,
      "Ġtip": 3149,
      "Ġstrateg": 3150,
      "Ġacross": 3151,
      "Ġagainst": 3152,
      "Ġswit": 3153,
      "si": 3154,
      "Ġlink": 3155,
      "til": 3156,
      "ĠDNA": 3157,
      "Ġtissue": 3158,
      "Ġ2008": 3159,
      "Ġconcentrations": 3160,
      "Ġreason": 3161,
      "ĠEffect": 3162,
      "ãĢ": 3163,
      "ĠAu": 3164,
      "Ġconstruct": 3165,
      "Ġ2000": 3166,
      "Ġwidth": 3167,
      "ios": 3168,
      "We": 3169,
      "Ġroll": 3170,
      "ivalent": 3171,
      "Ġcat": 3172,
      "Res": 3173,
      "cons": 3174,
      "Ġclose": 3175,
      "function": 3176,
      "Ġcontrolled": 3177,
      "Ġadjust": 3178,
      "Ġing": 3179,
      "Ġrequirements": 3180,
      "field": 3181,
      "Ġevolution": 3182,
      "Ġproducts": 3183,
      "ley": 3184,
      "âĢĲ": 3185,
      "Ġturn": 3186,
      "Ġassembly": 3187,
      "Ġouter": 3188,
      "Ġindicated": 3189,
      "Ġacceler": 3190,
      "Ġpreviously": 3191,
      "Ġdu": 3192,
      "roup": 3193,
      "Ġcertain": 3194,
      "Ġvacuum": 3195,
      "Ġaxis": 3196,
      "izon": 3197,
      "ytic": 3198,
      "Ġconfir": 3199,
      "ĠPL": 3200,
      "ady": 3201,
      "attice": 3202,
      "amine": 3203,
      "Ġoverall": 3204,
      "anal": 3205,
      "Ġtensile": 3206,
      "Ġmg": 3207,
      "Ġsaf": 3208,
      "ĠOne": 3209,
      "gu": 3210,
      "ansion": 3211,
      "Ġ2012": 3212,
      "Ġinner": 3213,
      "pport": 3214,
      "Ġincorpor": 3215,
      "Ġmodified": 3216,
      "Ġconventional": 3217,
      "radation": 3218,
      "ec": 3219,
      "Ġtank": 3220,
      "Ġbasis": 3221,
      "Ġframe": 3222,
      "Ġparallel": 3223,
      "Ġdise": 3224,
      "DI": 3225,
      "Ġcaused": 3226,
      "itrogen": 3227,
      "Ġ33": 3228,
      "ĠCenter": 3229,
      "Ġdifferences": 3230,
      "BS": 3231,
      "change": 3232,
      "âĪĤ": 3233,
      "ements": 3234,
      "ground": 3235,
      "Ġmechanisms": 3236,
      "Ġprior": 3237,
      "Ġ2007": 3238,
      "ilibrium": 3239,
      "Ġpipe": 3240,
      "En": 3241,
      "aft": 3242,
      "Ġfields": 3243,
      "Ġlog": 3244,
      "umber": 3245,
      "Ġ2006": 3246,
      "ulsion": 3247,
      "Ġnanoc": 3248,
      "Ġinduced": 3249,
      "Ġ37": 3250,
      "Ġanalyzed": 3251,
      "Ġphenomen": 3252,
      "Ġprofile": 3253,
      "Ġwire": 3254,
      "Ġvs": 3255,
      "ditional": 3256,
      "Â±": 3257,
      "Ġreco": 3258,
      "Ġreli": 3259,
      "Ġsumm": 3260,
      "iconduct": 3261,
      "ĠSociety": 3262,
      "point": 3263,
      "Ġtor": 3264,
      "Ġsitu": 3265,
      "Ġincludes": 3266,
      "Ġsil": 3267,
      "och": 3268,
      "Ġmoment": 3269,
      "Ġvertical": 3270,
      "uation": 3271,
      "Ġdiss": 3272,
      "meric": 3273,
      "ĠModel": 3274,
      "ĠTechnology": 3275,
      "Ġgeneration": 3276,
      "uth": 3277,
      "ches": 3278,
      "Ġcover": 3279,
      "Ġdiv": 3280,
      "Ġcharacterized": 3281,
      "Ġsymmet": 3282,
      "Ġphosph": 3283,
      "Ġiss": 3284,
      "Ġequal": 3285,
      "surface": 3286,
      "Ġdynamics": 3287,
      "Ġens": 3288,
      "TER": 3289,
      "tr": 3290,
      "%,": 3291,
      "scale": 3292,
      "used": 3293,
      "ework": 3294,
      "ĠSpec": 3295,
      "ĠMo": 3296,
      "partic": 3297,
      "ae": 3298,
      "Ġderived": 3299,
      "Ġforces": 3300,
      "==": 3301,
      "oped": 3302,
      "back": 3303,
      "Ġminimum": 3304,
      "ids": 3305,
      "Ġnoise": 3306,
      "Ġcomplete": 3307,
      "ways": 3308,
      "Ġvehicle": 3309,
      "artment": 3310,
      "Ġabsor": 3311,
      "Ġfluores": 3312,
      "Ġdays": 3313,
      "ĠTO": 3314,
      "Ġelectronic": 3315,
      "ales": 3316,
      "Ġcompress": 3317,
      "allic": 3318,
      "orizon": 3319,
      "Ġable": 3320,
      "300": 3321,
      "Ġspac": 3322,
      "âİ": 3323,
      "Ġheight": 3324,
      "Ġcoupling": 3325,
      "Ġincluded": 3326,
      "ĠPre": 3327,
      "elling": 3328,
      "ĠNa": 3329,
      "Ġtheoretical": 3330,
      "Ex": 3331,
      "ĠÂ·": 3332,
      "bi": 3333,
      "Ġwavelength": 3334,
      "ĠHigh": 3335,
      "yp": 3336,
      "ries": 3337,
      "Ġhot": 3338,
      "Ġnanot": 3339,
      "Ġmodulus": 3340,
      "rees": 3341,
      "tes": 3342,
      "Ġnegative": 3343,
      "measure": 3344,
      "Ġful": 3345,
      "Ġpropag": 3346,
      "ä¸": 3347,
      "Ġcombination": 3348,
      "ĠInternational": 3349,
      "Ġhead": 3350,
      "ensive": 3351,
      "Ġ36": 3352,
      "Ġexper": 3353,
      "Ġresolution": 3354,
      "Ġlik": 3355,
      "ĠMethod": 3356,
      "Ġ2013": 3357,
      "owledge": 3358,
      "Ġ2005": 3359,
      "Ġindependent": 3360,
      "enef": 3361,
      "Ġinhib": 3362,
      "Î±": 3363,
      "mat": 3364,
      "Ġrelease": 3365,
      "Ġdisplay": 3366,
      "organ": 3367,
      "Ġexternal": 3368,
      "Ġvisc": 3369,
      "Ġatoms": 3370,
      "Ġpair": 3371,
      "ĠUsing": 3372,
      "Ġcontrast": 3373,
      "ĠAss": 3374,
      "akes": 3375,
      "Ġinvestigate": 3376,
      "Ġability": 3377,
      "Ġdisplacement": 3378,
      "Ġspat": 3379,
      "certain": 3380,
      "Ġleft": 3381,
      "ĠCl": 3382,
      "ĠCont": 3383,
      "uk": 3384,
      "Ġoften": 3385,
      "iding": 3386,
      "ĠNe": 3387,
      "Ġamong": 3388,
      "orth": 3389,
      "ures": 3390,
      "ĠEq": 3391,
      "ogeneous": 3392,
      "irect": 3393,
      "Ġ00": 3394,
      "rystall": 3395,
      "Ġaccuracy": 3396,
      "Ġseparation": 3397,
      "Ġnature": 3398,
      "Ġoxidation": 3399,
      "Ġslight": 3400,
      "org": 3401,
      "Ġoccurs": 3402,
      "Ġsuccessful": 3403,
      "Ġcombined": 3404,
      "Ġsensitivity": 3405,
      "rem": 3406,
      "electron": 3407,
      "Ġreinfor": 3408,
      "Ġvalve": 3409,
      "vari": 3410,
      "formed": 3411,
      "process": 3412,
      "Ġindex": 3413,
      "max": 3414,
      "Ġgive": 3415,
      "Ġtum": 3416,
      "PO": 3417,
      "Ġneeded": 3418,
      "state": 3419,
      "nm": 3420,
      "bustion": 3421,
      "Ġmonitor": 3422,
      "dings": 3423,
      "Ġfer": 3424,
      "ript": 3425,
      "ĠOpt": 3426,
      "gener": 3427,
      "this": 3428,
      "Ġmicroscopy": 3429,
      "effect": 3430,
      "Ġenhance": 3431,
      "ĠOur": 3432,
      "Ġhelp": 3433,
      "Ġfast": 3434,
      "._": 3435,
      "Ġ2014": 3436,
      "raint": 3437,
      "aid": 3438,
      "Ġaspect": 3439,
      "Ġtypical": 3440,
      "Ġliterature": 3441,
      "ned": 3442,
      "Ġfilter": 3443,
      "Ġnano": 3444,
      "Ġpowder": 3445,
      "Ġ400": 3446,
      "Ġsyn": 3447,
      "ĠÎ±": 3448,
      "Ġevaluated": 3449,
      "ĠNO": 3450,
      "Ġ150": 3451,
      "UN": 3452,
      "lectric": 3453,
      "Ġmodes": 3454,
      "scill": 3455,
      "ĠSince": 3456,
      "ones": 3457,
      "Ġreflect": 3458,
      "ometer": 3459,
      "Ġsqu": 3460,
      "rary": 3461,
      "Ġrecom": 3462,
      "ret": 3463,
      "Ġhyd": 3464,
      "âĢ²": 3465,
      "Ġassumed": 3466,
      "than": 3467,
      "Ġlocation": 3468,
      "use": 3469,
      "Ġcorrelation": 3470,
      "sized": 3471,
      "Ġformul": 3472,
      "Ġconsistent": 3473,
      "Ġuseful": 3474,
      "IF": 3475,
      "Ġess": 3476,
      "taining": 3477,
      "ĠApp": 3478,
      "otic": 3479,
      "const": 3480,
      "Ġglo": 3481,
      "Ġchallen": 3482,
      "vey": 3483,
      "Ġspectroscopy": 3484,
      "Ġpure": 3485,
      "hest": 3486,
      "Ġgap": 3487,
      "unted": 3488,
      "Ġfund": 3489,
      "Ġpen": 3490,
      "ha": 3491,
      "Ġplat": 3492,
      "Ġmachine": 3493,
      "PER": 3494,
      "ĠSte": 3495,
      "ĠInter": 3496,
      "ders": 3497,
      "link": 3498,
      "SM": 3499,
      "ÃĹ": 3500,
      "reement": 3501,
      "Ġ...": 3502,
      "Ġplaced": 3503,
      "pat": 3504,
      "Ġweak": 3505,
      "icity": 3506,
      "Ġcomposites": 3507,
      "zzle": 3508,
      "Ġdone": 3509,
      "isc": 3510,
      "Ġfibers": 3511,
      "ocy": 3512,
      "Ġtw": 3513,
      "ication": 3514,
      "conduct": 3515,
      "iated": 3516,
      "Ġcommer": 3517,
      "_{": 3518,
      "Ġ34": 3519,
      "stitute": 3520,
      "PE": 3521,
      "Ġgraphene": 3522,
      "pecially": 3523,
      "Ġregard": 3524,
      "formance": 3525,
      "Chapter": 3526,
      "ĠAnalysis": 3527,
      "ĠHz": 3528,
      "li": 3529,
      "Ġlamin": 3530,
      "etric": 3531,
      "Ġdomain": 3532,
      "Ġidentified": 3533,
      "Ġtit": 3534,
      "Ġmid": 3535,
      "Ġclear": 3536,
      "Ġaim": 3537,
      "ĠEnergy": 3538,
      "duc": 3539,
      "Ġaxial": 3540,
      "Ġconstruction": 3541,
      "ĠGa": 3542,
      "Ġsufficient": 3543,
      "rier": 3544,
      "Ġ75": 3545,
      "Ġconnection": 3546,
      "Ġanother": 3547,
      "Ġshell": 3548,
      "Ġatmosp": 3549,
      "ished": 3550,
      "fficients": 3551,
      "Ġcoordin": 3552,
      "orn": 3553,
      "Ġrang": 3554,
      "NASA": 3555,
      "Ġ{": 3556,
      "Ġremain": 3557,
      "Ġaluminum": 3558,
      "Ġinjection": 3559,
      "rams": 3560,
      "sive": 3561,
      "Ġhybrid": 3562,
      "serv": 3563,
      "ferences": 3564,
      "atus": 3565,
      "Ġstresses": 3566,
      "ivery": 3567,
      "Ġanne": 3568,
      "ina": 3569,
      "Ġmodeling": 3570,
      "Ġpredicted": 3571,
      "Ġrough": 3572,
      "Ġlab": 3573,
      "400": 3574,
      "chang": 3575,
      "Ġsuitable": 3576,
      "Ġ1000": 3577,
      "Ġprobe": 3578,
      "stream": 3579,
      "Ġtermin": 3580,
      "Ġenc": 3581,
      "Ġcancer": 3582,
      "electro": 3583,
      "ĠDr": 3584,
      "Ġvalid": 3585,
      "ĠInc": 3586,
      "Ġextract": 3587,
      "Ġzone": 3588,
      "gin": 3589,
      "ĠDesign": 3590,
      "Ġisol": 3591,
      "Ġmagnitude": 3592,
      "Ġfollowed": 3593,
      "Ġtren": 3594,
      "Ġ2004": 3595,
      "aster": 3596,
      "Ġtog": 3597,
      "Ġaer": 3598,
      "Ġinstr": 3599,
      "Ġmac": 3600,
      "Cs": 3601,
      "Ġcontribution": 3602,
      "ĠCD": 3603,
      "BL": 3604,
      "Ġdraw": 3605,
      "Ġcause": 3606,
      "Ġfatigue": 3607,
      "Ġvapor": 3608,
      "fil": 3609,
      "amic": 3610,
      "Ġarray": 3611,
      "riate": 3612,
      "Ġnonlinear": 3613,
      "Ġsmo": 3614,
      "layer": 3615,
      "ĠÃĹ": 3616,
      "OM": 3617,
      "unter": 3618,
      "FR": 3619,
      "Ġdiag": 3620,
      "rav": 3621,
      "FIG": 3622,
      "ĠInt": 3623,
      "ĠTwo": 3624,
      "Ġconcer": 3625,
      "Ġdouble": 3626,
      "wise": 3627,
      "Ġmill": 3628,
      "Ġbatter": 3629,
      "Ġsee": 3630,
      "Ġcycles": 3631,
      "plant": 3632,
      "sec": 3633,
      "Ġevaluation": 3634,
      "Ġmotor": 3635,
      "sequently": 3636,
      "pir": 3637,
      "Ġdro": 3638,
      "Ġsites": 3639,
      "Ġscattering": 3640,
      "Ġoscill": 3641,
      "çļ": 3642,
      "Ġengineering": 3643,
      "Ġsite": 3644,
      "Ġclin": 3645,
      "ĠData": 3646,
      "Ġconsum": 3647,
      "Ã¤": 3648,
      "Ġbenef": 3649,
      "Ġsensors": 3650,
      "Ġequipment": 3651,
      "DS": 3652,
      "ttp": 3653,
      "Ġconnect": 3654,
      "cin": 3655,
      "-.": 3656,
      "ĠSection": 3657,
      "Ġtogether": 3658,
      "Ġfully": 3659,
      "111": 3660,
      "pressure": 3661,
      "gram": 3662,
      "Ġinlet": 3663,
      "Ġplace": 3664,
      "vered": 3665,
      "HT": 3666,
      "çļĦ": 3667,
      "Ġbiom": 3668,
      "Ġbroad": 3669,
      "rating": 3670,
      "Ġsources": 3671,
      "Ġ48": 3672,
      "Ġframework": 3673,
      "Ġdemonstrate": 3674,
      "Ġterm": 3675,
      "Ġintroduced": 3676,
      "ye": 3677,
      "LO": 3678,
      "Ġleading": 3679,
      "istance": 3680,
      "vo": 3681,
      "Ġstiffness": 3682,
      "Ġlocated": 3683,
      "well": 3684,
      "Ġmob": 3685,
      "Ġachieve": 3686,
      "Ġbasic": 3687,
      "ĠĊĠĊĠĊĠ": 3688,
      "Ġ38": 3689,
      "ĠBl": 3690,
      "otal": 3691,
      "oad": 3692,
      "Ġsteps": 3693,
      "Ġmodule": 3694,
      "incre": 3695,
      "osen": 3696,
      "Ġfar": 3697,
      "ĠAct": 3698,
      "Ġexpansion": 3699,
      "Ġleads": 3700,
      "Ġvir": 3701,
      "igned": 3702,
      "itative": 3703,
      "clusions": 3704,
      "Ġcalculations": 3705,
      "Ġ120": 3706,
      "UT": 3707,
      "ĠFrom": 3708,
      "ĠCa": 3709,
      "Ġaccess": 3710,
      "Ġprinc": 3711,
      "Ġportion": 3712,
      "III": 3713,
      "Ġ2015": 3714,
      "Ġunderstanding": 3715,
      "Ġpatterns": 3716,
      "parison": 3717,
      "PM": 3718,
      "Ġïĥ": 3719,
      "Ġappear": 3720,
      "Ġheter": 3721,
      "Ġalloys": 3722,
      "Ġindicates": 3723,
      "Ġfabrication": 3724,
      "Ġarticle": 3725,
      "ij": 3726,
      "Ġtreated": 3727,
      "stract": 3728,
      "Ġestimated": 3729,
      "Ġearly": 3730,
      "Ġbreak": 3731,
      "rs": 3732,
      "lig": 3733,
      "Ġpanel": 3734,
      "high": 3735,
      "ev": 3736,
      "%.": 3737,
      "Ġrig": 3738,
      "Ġfront": 3739,
      "Ġpulse": 3740,
      "iting": 3741,
      "eline": 3742,
      "mole": 3743,
      "fined": 3744,
      "down": 3745,
      "Ġcompounds": 3746,
      "Ġemployed": 3747,
      "Ġhalf": 3748,
      "ĠMicro": 3749,
      "Ð»": 3750,
      "Ġmeas": 3751,
      "Ġrepl": 3752,
      "ÃŃ": 3753,
      "Ġelectrodes": 3754,
      "Ġ................................................................................": 3755,
      "Ġclean": 3756,
      "Ġapprop": 3757,
      "ĠThey": 3758,
      "PR": 3759,
      "roscopic": 3760,
      "isted": 3761,
      "otropic": 3762,
      "Ġbinding": 3763,
      "Ġslow": 3764,
      "Ga": 3765,
      "Ġradius": 3766,
      "Ġversus": 3767,
      "Ġfriction": 3768,
      "Ġcomputer": 3769,
      "ĠTherm": 3770,
      "ĠAmeric": 3771,
      "Ġspecial": 3772,
      "ends": 3773,
      "Ġphoto": 3774,
      "Ġaccept": 3775,
      "Ġcriter": 3776,
      "Ġchapter": 3777,
      "imate": 3778,
      "ĠSub": 3779,
      "Ġsupply": 3780,
      "Ġelectroly": 3781,
      "ESS": 3782,
      "Ġdiffraction": 3783,
      "Ġwt": 3784,
      "isation": 3785,
      "Ġcopper": 3786,
      "tech": 3787,
      "ĠFurthermore": 3788,
      "eta": 3789,
      "perty": 3790,
      "aman": 3791,
      "Ġwho": 3792,
      "Ġmight": 3793,
      "test": 3794,
      "Ġnow": 3795,
      "Ġlattice": 3796,
      "ĠDep": 3797,
      "Ġexisting": 3798,
      "UTION": 3799,
      "Ġlikely": 3800,
      "Ã¡": 3801,
      "ultaneous": 3802,
      "ĠStud": 3803,
      "Ġapproaches": 3804,
      "ĠFOR": 3805,
      "ols": 3806,
      "ern": 3807,
      "EF": 3808,
      "amm": 3809,
      "ĠComp": 3810,
      "imal": 3811,
      "resents": 3812,
      "NO": 3813,
      "Ġ44": 3814,
      "induced": 3815,
      "Ġinvestigation": 3816,
      "arily": 3817,
      "ameters": 3818,
      "ĠDi": 3819,
      "Ġdisclos": 3820,
      "ĠAlthough": 3821,
      "ĠÌģ": 3822,
      "Ġshowing": 3823,
      "Ġentire": 3824,
      "roph": 3825,
      "Ġyou": 3826,
      "rich": 3827,
      "iner": 3828,
      "between": 3829,
      "opt": 3830,
      "etermin": 3831,
      "ping": 3832,
      "ĠCar": 3833,
      "Ġbehaviour": 3834,
      "appro": 3835,
      "Ġaggreg": 3836,
      "RD": 3837,
      "ĠâĢĺ": 3838,
      "Ġcorrosion": 3839,
      "Ġlast": 3840,
      "Ã§": 3841,
      "Ġface": 3842,
      "Ġdecreased": 3843,
      "Ġcylinder": 3844,
      "carbon": 3845,
      "level": 3846,
      "Ġdependence": 3847,
      "Ġoriginal": 3848,
      "ferred": 3849,
      "Ġche": 3850,
      "Ġphases": 3851,
      "ĠChar": 3852,
      "ules": 3853,
      "ĠQu": 3854,
      "Ġsheet": 3855,
      "ze": 3856,
      "endix": 3857,
      "hesion": 3858,
      "Ġbecome": 3859,
      "Ġrather": 3860,
      "Ġacqu": 3861,
      "TT": 3862,
      "lt": 3863,
      "Ġhorizon": 3864,
      "STR": 3865,
      "velopment": 3866,
      "oust": 3867,
      "ider": 3868,
      "ĠIII": 3869,
      "Ġlig": 3870,
      "Ġsatis": 3871,
      "Ġcount": 3872,
      "Ġenerg": 3873,
      "Ġanalyses": 3874,
      "requency": 3875,
      "Ġespecially": 3876,
      "itting": 3877,
      "Ġ2003": 3878,
      "ref": 3879,
      "olic": 3880,
      "Ġstri": 3881,
      "Ġessential": 3882,
      "Ġpresents": 3883,
      "Ġâī": 3884,
      "ino": 3885,
      "Ġden": 3886,
      "----------------": 3887,
      "Ni": 3888,
      "ublished": 3889,
      "Ġcharacterization": 3890,
      "Ġuntil": 3891,
      "Ġdegradation": 3892,
      "Ġmixed": 3893,
      "ĠChapter": 3894,
      "amental": 3895,
      "cr": 3896,
      "Ġreactions": 3897,
      "Ġhealth": 3898,
      "001": 3899,
      "sible": 3900,
      "PP": 3901,
      "ĠPt": 3902,
      "Ġdependent": 3903,
      "Ġpolymers": 3904,
      "ush": 3905,
      "Ġagreement": 3906,
      "ĠâĢĶ": 3907,
      "ĠCur": 3908,
      "ĠWang": 3909,
      "TM": 3910,
      "Ġcentral": 3911,
      "Ġquest": 3912,
      "Ġavoid": 3913,
      "ĠTHE": 3914,
      "Ġonto": 3915,
      "Ġsoftware": 3916,
      "UC": 3917,
      "hesive": 3918,
      "Ġtension": 3919,
      "through": 3920,
      "Ġdig": 3921,
      "Ġthesis": 3922,
      "xide": 3923,
      "Ġiron": 3924,
      "Ġ................................................": 3925,
      "Ġcorrect": 3926,
      "Ġ55": 3927,
      "âĿ": 3928,
      "NTs": 3929,
      "Ġsequence": 3930,
      "Ġcapt": 3931,
      "ientific": 3932,
      "Ġfive": 3933,
      "Ġ39": 3934,
      "Ġsulf": 3935,
      "Ġenhanced": 3936,
      "ĠExperimental": 3937,
      "Ġlaw": 3938,
      "ĠFinally": 3939,
      "orld": 3940,
      "Ġintegrated": 3941,
      "energy": 3942,
      "Ġvariables": 3943,
      "De": 3944,
      "Ġcompression": 3945,
      "mitted": 3946,
      "ĠHere": 3947,
      "Ġirrad": 3948,
      "FM": 3949,
      "cule": 3950,
      "Ġpast": 3951,
      "amb": 3952,
      "^{": 3953,
      "Ġnitrogen": 3954,
      "posite": 3955,
      "Ġblood": 3956,
      "Ġconversion": 3957,
      "cycl": 3958,
      "ĠSOL": 3959,
      "Ġvariable": 3960,
      "Ġoptimal": 3961,
      "Ġeffort": 3962,
      "Ġgrid": 3963,
      "Ġdetected": 3964,
      "Ġflat": 3965,
      "wave": 3966,
      "Ġaction": 3967,
      "ource": 3968,
      "Ġecon": 3969,
      ")(": 3970,
      "Ġgenerally": 3971,
      "Cu": 3972,
      "ogn": 3973,
      "Ġsignals": 3974,
      "Ġidentify": 3975,
      "ĠUV": 3976,
      "Ġcolumn": 3977,
      "ivation": 3978,
      "ĠMan": 3979,
      "tation": 3980,
      "Ġshaft": 3981,
      "Ġplant": 3982,
      "rig": 3983,
      "Ġsecondary": 3984,
      "Ġnext": 3985,
      "Ġrequires": 3986,
      "Ġcoupled": 3987,
      "atically": 3988,
      "Ġchrom": 3989,
      "Ġ42": 3990,
      "Ġalk": 3991,
      "ists": 3992,
      "Ġspatial": 3993,
      "spect": 3994,
      "free": 3995,
      "gel": 3996,
      "ee": 3997,
      "Ġstream": 3998,
      "plane": 3999,
      "Ġcoefficients": 4000,
      "edu": 4001,
      "model": 4002,
      "ĠMon": 4003,
      "present": 4004,
      "Ġadsorption": 4005,
      "CA": 4006,
      "Ġ41": 4007,
      "nd": 4008,
      "ĠFlu": 4009,
      "',": 4010,
      "ouse": 4011,
      "VD": 4012,
      "Ġseg": 4013,
      "atur": 4014,
      "irection": 4015,
      "ometry": 4016,
      "PA": 4017,
      "ĠMater": 4018,
      "dens": 4019,
      "Ġspectral": 4020,
      "Ġequivalent": 4021,
      "elastic": 4022,
      "Ġchlor": 4023,
      "Ġchain": 4024,
      "ĠSEM": 4025,
      "ĠCM": 4026,
      "Ġcharacteristic": 4027,
      "Ã£": 4028,
      "Ġprint": 4029,
      "Ġrisk": 4030,
      "Ġwhether": 4031,
      "ĠMed": 4032,
      "igen": 4033,
      "Ġrock": 4034,
      "Ġpreparation": 4035,
      "ittle": 4036,
      "Ġ2016": 4037,
      "ĠInstitute": 4038,
      "pping": 4039,
      "Ġevery": 4040,
      "fect": 4041,
      "Ġadapt": 4042,
      "Ġcarb": 4043,
      "Ġknowledge": 4044,
      "Ġdomin": 4045,
      "che": 4046,
      "pm": 4047,
      "Ġimmun": 4048,
      "ĠLa": 4049,
      "Ġrod": 4050,
      "Ġcho": 4051,
      "but": 4052,
      "\",": 4053,
      "Ġenvironmental": 4054,
      "Ġsolvent": 4055,
      "SION": 4056,
      "ĠRev": 4057,
      "Ġbearing": 4058,
      "Ġrepro": 4059,
      "Ġvibration": 4060,
      "using": 4061,
      "hal": 4062,
      "plication": 4063,
      "Ġpore": 4064,
      "Ġthough": 4065,
      "aped": 4066,
      "Ġdischarge": 4067,
      "oil": 4068,
      "come": 4069,
      "Ġfollows": 4070,
      "Ġlear": 4071,
      "Ġsemiconduct": 4072,
      "Ġmanagement": 4073,
      "Ġinser": 4074,
      "Ġbal": 4075,
      "Ġcannot": 4076,
      "graph": 4077,
      "ories": 4078,
      "istribution": 4079,
      "Ġ2002": 4080,
      "py": 4081,
      "aching": 4082,
      "Ġgene": 4083,
      "Ġexamined": 4084,
      "NG": 4085,
      "Ġvector": 4086,
      "ious": 4087,
      "Ġappropriate": 4088,
      "aratus": 4089,
      "ĠAdv": 4090,
      "rapy": 4091,
      "Ġfacil": 4092,
      "iol": 4093,
      "Ġworking": 4094,
      "Ġtake": 4095,
      "Ġbecomes": 4096,
      "Ġpy": 4097,
      "hy": 4098,
      "Ġdesired": 4099,
      "Ġeasily": 4100,
      "PD": 4101,
      "Ġmixing": 4102,
      "mediate": 4103,
      "Ġbox": 4104,
      "exp": 4105,
      "Ġaccurate": 4106,
      "oring": 4107,
      "Ġanalytical": 4108,
      "hers": 4109,
      "150": 4110,
      "queous": 4111,
      "Ġ95": 4112,
      "Ġlith": 4113,
      "Ġlip": 4114,
      "ĠTemperature": 4115,
      "unting": 4116,
      "eng": 4117,
      "Ġminutes": 4118,
      "110": 4119,
      "anium": 4120,
      "Ġsubstrates": 4121,
      "Ġloads": 4122,
      "under": 4123,
      "AGE": 4124,
      "Ġcavity": 4125,
      "Ġproteins": 4126,
      "Ġporous": 4127,
      "Ġremoved": 4128,
      "Ġfam": 4129,
      "etics": 4130,
      "%%": 4131,
      "Ġdetailed": 4132,
      "Ġscheme": 4133,
      "Ġmicrostructure": 4134,
      "Ġsimpl": 4135,
      "Ġdelivery": 4136,
      "Ã£o": 4137,
      "minist": 4138,
      "chem": 4139,
      "Ġgold": 4140,
      "ĠAer": 4141,
      "dle": 4142,
      "Ġmission": 4143,
      "Ġevidence": 4144,
      "Ġ43": 4145,
      "Ġtable": 4146,
      "Ġ65": 4147,
      "amer": 4148,
      "active": 4149,
      "Ġorientation": 4150,
      "Ġwhat": 4151,
      "Ġfabricated": 4152,
      "bs": 4153,
      "zym": 4154,
      "ĠĊĠĠĠĠ": 4155,
      "IB": 4156,
      "Ġjust": 4157,
      "Ġequilibrium": 4158,
      "Ġperme": 4159,
      "LL": 4160,
      "ĠPa": 4161,
      "Ġart": 4162,
      "RA": 4163,
      "Ġresidual": 4164,
      "Ġcapable": 4165,
      "enced": 4166,
      "Ġsand": 4167,
      "Ġconsists": 4168,
      ".....": 4169,
      "ĠMoreover": 4170,
      "zo": 4171,
      "ĠPhot": 4172,
      "Ġgrav": 4173,
      "rared": 4174,
      "Ġ600": 4175,
      "ostructure": 4176,
      "Me": 4177,
      "Ġoptimization": 4178,
      "Ġestablished": 4179,
      "ĠMar": 4180,
      "Ġevaluate": 4181,
      "Ġsaid": 4182,
      "ĠChemical": 4183,
      "ulations": 4184,
      "umer": 4185,
      "alk": 4186,
      "Ġloop": 4187,
      "Ġstatic": 4188,
      "Ġwhereas": 4189,
      "Ġproper": 4190,
      "amination": 4191,
      "lish": 4192,
      "ica": 4193,
      "Ġdiagn": 4194,
      "Ġdeposited": 4195,
      "Ġcos": 4196,
      "Ġamplitude": 4197,
      "Ġforming": 4198,
      "Ġ101": 4199,
      "Ġdisease": 4200,
      "Ġhighest": 4201,
      "SO": 4202,
      "she": 4203,
      "Ġcare": 4204,
      "Ġinvolved": 4205,
      "Ġanti": 4206,
      "Ġauthors": 4207,
      "conn": 4208,
      "Ġvariety": 4209,
      "Ġrelation": 4210,
      "Ġprofiles": 4211,
      "sign": 4212,
      "Ġmorphology": 4213,
      "Ġgives": 4214,
      "ĠPr": 4215,
      "ĠMat": 4216,
      "Ġobservations": 4217,
      ".........": 4218,
      "ti": 4219,
      "ĠPar": 4220,
      "empt": 4221,
      "Ġorbit": 4222,
      "Ġflight": 4223,
      "Ġcode": 4224,
      "Ġdecreases": 4225,
      "sens": 4226,
      "strain": 4227,
      "Ġstabil": 4228,
      "Ïĥ": 4229,
      "Ġsections": 4230,
      "urations": 4231,
      "lim": 4232,
      "Ġrepresents": 4233,
      "ources": 4234,
      "ABLE": 4235,
      "ems": 4236,
      "ament": 4237,
      "ool": 4238,
      "Ġplates": 4239,
      "Ġconstraint": 4240,
      "ivo": 4241,
      "opy": 4242,
      "Ġproport": 4243,
      "Ġactual": 4244,
      "Ġcoatings": 4245,
      "Ġnozzle": 4246,
      "Ad": 4247,
      "rays": 4248,
      "itect": 4249,
      "iment": 4250,
      "Ġdielectric": 4251,
      "Ġuncertain": 4252,
      "Ġgel": 4253,
      "cap": 4254,
      "omy": 4255,
      "ĠPD": 4256,
      "Ġthird": 4257,
      "Ġtrack": 4258,
      "Ġpurpose": 4259,
      "arrow": 4260,
      "Ġdimensions": 4261,
      "Ġstatist": 4262,
      "Ġratios": 4263,
      "ĠEng": 4264,
      "Ġadvantages": 4265,
      "Ġglobal": 4266,
      "Ġrotation": 4267,
      "reshold": 4268,
      "Ġdescribe": 4269,
      "part": 4270,
      "Ġestimate": 4271,
      "Ġow": 4272,
      "Ġoxid": 4273,
      "Ġsafety": 4274,
      "Ġthrust": 4275,
      "Ġusually": 4276,
      "Ġrepe": 4277,
      "ss": 4278,
      "Ġarch": 4279,
      "ining": 4280,
      "Ġexposed": 4281,
      "Ġcombustion": 4282,
      "ades": 4283,
      "Ġcommercial": 4284,
      "120": 4285,
      "ira": 4286,
      "iber": 4287,
      "composition": 4288,
      "Ġgradient": 4289,
      "Ġmaking": 4290,
      "Ġuser": 4291,
      "fig": 4292,
      "Ġpublic": 4293,
      "static": 4294,
      "Ġreducing": 4295,
      "ickel": 4296,
      "teg": 4297,
      "known": 4298,
      "Ġemb": 4299,
      "Ġpeaks": 4300,
      "Ġmainly": 4301,
      "Ġ46": 4302,
      "Ġdrople": 4303,
      "Ġfore": 4304,
      "ĠeV": 4305,
      "Ġrecorded": 4306,
      "CN": 4307,
      "Ġwear": 4308,
      "td": 4309,
      "Ġpress": 4310,
      "Ġbending": 4311,
      "Ġslightly": 4312,
      "Ġmeasuring": 4313,
      "Ġremoval": 4314,
      "Ġchosen": 4315,
      "ened": 4316,
      ")$": 4317,
      "condition": 4318,
      "ylene": 4319,
      "Ġbiological": 4320,
      "different": 4321,
      "Ġtowards": 4322,
      "comple": 4323,
      "ffer": 4324,
      "cellent": 4325,
      "ao": 4326,
      "Ġwherein": 4327,
      "ometric": 4328,
      "vier": 4329,
      "pha": 4330,
      "Ġalmost": 4331,
      "Ġdat": 4332,
      "hol": 4333,
      "have": 4334,
      "Ġforms": 4335,
      "ĠPR": 4336,
      "Ġspl": 4337,
      "Ġclinical": 4338,
      "romagnetic": 4339,
      "ĠChen": 4340,
      "assemb": 4341,
      "olar": 4342,
      "Ġvarying": 4343,
      "ĠElectro": 4344,
      "Ġcollect": 4345,
      "Ġatomic": 4346,
      "ĠWhile": 4347,
      "Ġcollected": 4348,
      "Ġantib": 4349,
      "herent": 4350,
      "inity": 4351,
      "ows": 4352,
      "anes": 4353,
      "cc": 4354,
      "ĠmL": 4355,
      "Ġcathod": 4356,
      "Ġresin": 4357,
      "''": 4358,
      "Ġsup": 4359,
      "ĠÎ²": 4360,
      "ĠTiO": 4361,
      "Ġwaste": 4362,
      "Ġcoated": 4363,
      "Ġcalled": 4364,
      "ographic": 4365,
      "Ġetc": 4366,
      "Ġtransform": 4367,
      "Ġ47": 4368,
      "Ġextended": 4369,
      "Ġrevealed": 4370,
      "CP": 4371,
      "ĠMc": 4372,
      "Ġmanufacturing": 4373,
      "......": 4374,
      "techn": 4375,
      "Ġscanning": 4376,
      "vis": 4377,
      "eth": 4378,
      "ember": 4379,
      "tely": 4380,
      "Ġblack": 4381,
      "ĠMg": 4382,
      "Ġsimultaneous": 4383,
      "Ġwhole": 4384,
      "ĠTEM": 4385,
      ".\"": 4386,
      "sevier": 4387,
      "TA": 4388,
      "ĠAlso": 4389,
      "SF": 4390,
      "Ġage": 4391,
      "Ġdifferential": 4392,
      "Ġcalculation": 4393,
      "Ġrelax": 4394,
      "ensities": 4395,
      "Ġproperty": 4396,
      "Ġactu": 4397,
      "Ġshift": 4398,
      "Ġactivation": 4399,
      "Ġbuilding": 4400,
      "cale": 4401,
      "ryl": 4402,
      "abilities": 4403,
      "fe": 4404,
      "Ġunits": 4405,
      "Ġland": 4406,
      "band": 4407,
      "Ġrights": 4408,
      "Ġmonitoring": 4409,
      "ãĤ": 4410,
      "ĠSoc": 4411,
      "Ġelimin": 4412,
      "Ġreactor": 4413,
      "GA": 4414,
      "Ġevapor": 4415,
      "ada": 4416,
      "odium": 4417,
      "Ġcylind": 4418,
      "Ġnit": 4419,
      "Ġ2017": 4420,
      "åŃ": 4421,
      "Ã¼": 4422,
      "ocal": 4423,
      "Ġhis": 4424,
      "Ġsix": 4425,
      "Ġther": 4426,
      "Î²": 4427,
      "Ġ2001": 4428,
      "Ġday": 4429,
      "Ġelectrons": 4430,
      "ura": 4431,
      "Ġstim": 4432,
      "etra": 4433,
      "..........": 4434,
      "VE": 4435,
      "ractive": 4436,
      "ĠSur": 4437,
      "ĠReport": 4438,
      "luc": 4439,
      "Ġcolor": 4440,
      "Ġsilica": 4441,
      "ĠOb": 4442,
      "Ġaccom": 4443,
      "Ġeng": 4444,
      "EA": 4445,
      "CF": 4446,
      "à¯": 4447,
      "posites": 4448,
      "VI": 4449,
      "Ġexcess": 4450,
      "Ġkg": 4451,
      "Ġbrid": 4452,
      "bar": 4453,
      "ĠChemistry": 4454,
      "onding": 4455,
      "ĠShe": 4456,
      "Ġnoted": 4457,
      "Ġ]": 4458,
      "www": 4459,
      "Ã³n": 4460,
      "ĠAmerican": 4461,
      "ĠJoh": 4462,
      "Ġturbul": 4463,
      "car": 4464,
      "ĠBoth": 4465,
      "Ġdispersion": 4466,
      "odynamic": 4467,
      "ĠAppl": 4468,
      "kg": 4469,
      "Ġappears": 4470,
      "ulate": 4471,
      "Ġpartial": 4472,
      "Ġ49": 4473,
      "Ġopp": 4474,
      "cluded": 4475,
      "Ġleak": 4476,
      "RI": 4477,
      "idity": 4478,
      "RNA": 4479,
      "ĠGener": 4480,
      "Ġunique": 4481,
      "ĠCr": 4482,
      "Ġdefects": 4483,
      "Ġmedia": 4484,
      "ĠMeasure": 4485,
      "ĠSurface": 4486,
      "Ġsquare": 4487,
      "Ġvisual": 4488,
      "ĠIntro": 4489,
      "Ġsteady": 4490,
      "ĠBased": 4491,
      "ĠMPa": 4492,
      "Ġevent": 4493,
      "600": 4494,
      "Ġplay": 4495,
      "Ġvariations": 4496,
      "vestig": 4497,
      "ams": 4498,
      "Ġball": 4499,
      "Ġsets": 4500,
      "Ġbacter": 4501,
      "berg": 4502,
      "Ġhorizontal": 4503,
      "ACT": 4504,
      "Ġprecip": 4505,
      "Ġproviding": 4506,
      "la": 4507,
      "une": 4508,
      "Ġshock": 4509,
      "ITY": 4510,
      "mann": 4511,
      "avy": 4512,
      "itudinal": 4513,
      "Ġenough": 4514,
      "Ġgover": 4515,
      "ĠNMR": 4516,
      "ĠNational": 4517,
      "ĠSer": 4518,
      "ECT": 4519,
      "Ġsizes": 4520,
      "ĠElectron": 4521,
      "troll": 4522,
      "Ġnetworks": 4523,
      "He": 4524,
      "Ġdepends": 4525,
      "Ġexhibit": 4526,
      "Ġgal": 4527,
      "Ġlonger": 4528,
      "Ġparticularly": 4529,
      "ulating": 4530,
      "Ġear": 4531,
      "Ġsimulated": 4532,
      "rors": 4533,
      "cum": 4534,
      "current": 4535,
      "ĠGu": 4536,
      "ils": 4537,
      "Ġviscosity": 4538,
      "Ġuses": 4539,
      "olymer": 4540,
      "orous": 4541,
      "ried": 4542,
      "Ġjet": 4543,
      "Ġdop": 4544,
      "Ġselection": 4545,
      "Ġsmooth": 4546,
      "Ġdiscloses": 4547,
      "ĠFirst": 4548,
      "Ġlittle": 4549,
      "Ġholes": 4550,
      "ĠRad": 4551,
      "Ġapparatus": 4552,
      "Ġconstit": 4553,
      "apping": 4554,
      "Ġsynthesized": 4555,
      "prop": 4556,
      "Ġresulted": 4557,
      "Ġbub": 4558,
      "No": 4559,
      "ponent": 4560,
      "Ġindustry": 4561,
      "Ġsupported": 4562,
      "ipped": 4563,
      "Ġsetting": 4564,
      "jug": 4565,
      "plate": 4566,
      "Ġobjective": 4567,
      "ĠElsevier": 4568,
      "ĠPart": 4569,
      "Ġcour": 4570,
      "vere": 4571,
      "fluid": 4572,
      "SE": 4573,
      "Ġpropagation": 4574,
      "Ġinstrument": 4575,
      "Ġcast": 4576,
      "rief": 4577,
      "crib": 4578,
      "herical": 4579,
      "Ġderiv": 4580,
      "Ġplatform": 4581,
      "rict": 4582,
      "Ġnumbers": 4583,
      "Ġtrain": 4584,
      "ifer": 4585,
      "PH": 4586,
      "rown": 4587,
      "pi": 4588,
      "ĠFlow": 4589,
      "Ġsec": 4590,
      "iveness": 4591,
      "...........": 4592,
      "********": 4593,
      "ĠCF": 4594,
      "uments": 4595,
      "arge": 4596,
      "Ġpractical": 4597,
      "atch": 4598,
      "ĠLett": 4599,
      "Ġcomputational": 4600,
      "Ġcontrib": 4601,
      "term": 4602,
      "ĊĊ": 4603,
      "method": 4604,
      "Ġfrequencies": 4605,
      "Ġwaves": 4606,
      "Ġ250": 4607,
      "ĠMach": 4608,
      "Ġfluorescence": 4609,
      "1000": 4610,
      "Ñĥ": 4611,
      "ĠRaman": 4612,
      "Ġamb": 4613,
      "Ġbio": 4614,
      "Î¸": 4615,
      "vices": 4616,
      "Ġprobability": 4617,
      "non": 4618,
      "Ġcontains": 4619,
      "ĠVer": 4620,
      "Ġvar": 4621,
      "Ġpenet": 4622,
      "UB": 4623,
      ")/": 4624,
      "ĠAL": 4625,
      "phot": 4626,
      "Ã¶": 4627,
      "ĠĠĠĠĠĠĠĠĠĠĠĠĠĠĠĠĠĠĠĠĠĠĠĠĠĠĠĠĠĠĠĠĠĠĠĠĠĠĠĠĠĠĠĠĠĠĠĠĠĠĠĠĠĠĠĠĠĠĠĠĠĠĠĠ": 4628,
      "oustic": 4629,
      "illed": 4630,
      "2000": 4631,
      "Ðº": 4632,
      "Ġimprovement": 4633,
      "DE": 4634,
      "ĠThen": 4635,
      "Ref": 4636,
      "Ġmut": 4637,
      "roscope": 4638,
      "iling": 4639,
      "ips": 4640,
      "Ġoppos": 4641,
      "hemat": 4642,
      "Ġagent": 4643,
      "Ġexcellent": 4644,
      "arp": 4645,
      "Ġdistributions": 4646,
      "phen": 4647,
      "ĠIntroduction": 4648,
      "stud": 4649,
      "Ġsensitive": 4650,
      "ont": 4651,
      "Ġradial": 4652,
      "work": 4653,
      "DA": 4654,
      "turb": 4655,
      "ĠTe": 4656,
      "Ġcounter": 4657,
      "Ġallowed": 4658,
      "geb": 4659,
      "urg": 4660,
      "ey": 4661,
      "Ġdetector": 4662,
      "Ġdoc": 4663,
      "Sp": 4664,
      "Ġdiscussion": 4665,
      "Ġdeep": 4666,
      "Ġmesh": 4667,
      "Ġinterpre": 4668,
      "Ġtumor": 4669,
      "Ġsuggested": 4670,
      "Ġgl": 4671,
      "Ġexcitation": 4672,
      "Ġmetallic": 4673,
      "ĠAir": 4674,
      "Ġaqueous": 4675,
      "Ġalthough": 4676,
      "Ġinject": 4677,
      "Ġmakes": 4678,
      "Ġcold": 4679,
      "Ġspray": 4680,
      "oma": 4681,
      "rot": 4682,
      "Ġadvantage": 4683,
      "pling": 4684,
      "Ġdimension": 4685,
      "Ġfundamental": 4686,
      "'-": 4687,
      "ĠEquation": 4688,
      "Ġadop": 4689,
      "Ġgain": 4690,
      "Ġrelates": 4691,
      "rowth": 4692,
      "Ġcrystals": 4693,
      "go": 4694,
      "Ġresonance": 4695,
      "Ġaddress": 4696,
      "Ġpip": 4697,
      "ymmetric": 4698,
      "Cr": 4699,
      "ĠZhang": 4700,
      "ined": 4701,
      "Ġ99": 4702,
      "Ġduct": 4703,
      "âĹ": 4704,
      "Ġann": 4705,
      "::::": 4706,
      "uss": 4707,
      "Ġexpressed": 4708,
      "Ġstrongly": 4709,
      "Ġdegrees": 4710,
      "Ġcarrier": 4711,
      "inct": 4712,
      "asi": 4713,
      "Ġsubstant": 4714,
      "Ġclosed": 4715,
      "eral": 4716,
      "heres": 4717,
      "Ġimportance": 4718,
      "ifying": 4719,
      "Ġreserved": 4720,
      "gl": 4721,
      "Ġanis": 4722,
      "ogenic": 4723,
      "ĠAT": 4724,
      "range": 4725,
      "!!": 4726,
      "CI": 4727,
      "Te": 4728,
      "log": 4729,
      "Ġsum": 4730,
      "Ġtechnologies": 4731,
      "izer": 4732,
      "Ġexact": 4733,
      "ĠPat": 4734,
      "There": 4735,
      "MM": 4736,
      "Ġsensing": 4737,
      "ads": 4738,
      "LI": 4739,
      ".......": 4740,
      "idth": 4741,
      "Ġservice": 4742,
      "ubric": 4743,
      "QU": 4744,
      "Ġacet": 4745,
      "ĠLtd": 4746,
      "Ġkind": 4747,
      "ympt": 4748,
      "ĠComparison": 4749,
      "Ġlaboratory": 4750,
      "PT": 4751,
      "Ġintegration": 4752,
      "Ġrecogn": 4753,
      "-,": 4754,
      "plicit": 4755,
      "Ġrecently": 4756,
      "Ġ52": 4757,
      "Ġfa": 4758,
      "oxide": 4759,
      "Ġhyper": 4760,
      "Ġrelevant": 4761,
      "________________": 4762,
      "atives": 4763,
      "math": 4764,
      "Ġque": 4765,
      "2010": 4766,
      "Ac": 4767,
      "data": 4768,
      "Ġ51": 4769,
      "Ġmetals": 4770,
      "Ag": 4771,
      "Ġsummar": 4772,
      "ĠCR": 4773,
      "Ġ85": 4774,
      "Ġenzym": 4775,
      "Ġbonding": 4776,
      "çĶ": 4777,
      "Ġskin": 4778,
      "Ġalternative": 4779,
      "Ġstation": 4780,
      "Ġadhesion": 4781,
      "Ġ56": 4782,
      "ĠVari": 4783,
      "lation": 4784,
      "Ġorigin": 4785,
      "Ġseed": 4786,
      "ifically": 4787,
      "Ġaffected": 4788,
      "Ġaccum": 4789,
      "Ġapparent": 4790,
      "ĠCy": 4791,
      "Ġcondens": 4792,
      "Ġcard": 4793,
      "ynthesis": 4794,
      "ĠTR": 4795,
      "raul": 4796,
      "Îµ": 4797,
      "Ġbarrier": 4798,
      "Ġrecovery": 4799,
      "odies": 4800,
      "Ġtechnical": 4801,
      "Ġthroughout": 4802,
      "amma": 4803,
      "unch": 4804,
      "ignment": 4805,
      "poses": 4806,
      "Ġsubjected": 4807,
      "enari": 4808,
      "Ġcheck": 4809,
      "Ġmanner": 4810,
      "tically": 4811,
      "Ġrecept": 4812,
      "ĠEach": 4813,
      "Ġbone": 4814,
      "ickness": 4815,
      "Ġprediction": 4816,
      "andid": 4817,
      "ĠĠĠĠĠĠĠĠĠ": 4818,
      "Ġpin": 4819,
      "ĠEd": 4820,
      "Ġstain": 4821,
      "oung": 4822,
      "Ġelectrochemical": 4823,
      "hom": 4824,
      "Ġexchange": 4825,
      "Ġoccurred": 4826,
      "ili": 4827,
      "ancy": 4828,
      "Ġmonth": 4829,
      "bound": 4830,
      "Ġneeds": 4831,
      "ĠON": 4832,
      "ĠEngine": 4833,
      "Ġlack": 4834,
      "Ġwet": 4835,
      "Ġ54": 4836,
      "ober": 4837,
      "Ġps": 4838,
      "Ġ53": 4839,
      "rene": 4840,
      "GR": 4841,
      "Ġflexible": 4842,
      "Pl": 4843,
      "heric": 4844,
      "Ġcapability": 4845,
      "Ġprogress": 4846,
      "Ġaff": 4847,
      "diff": 4848,
      "Ġintra": 4849,
      "Ġabs": 4850,
      "Ġmemory": 4851,
      "Ġstack": 4852,
      "Ġdistributed": 4853,
      "reep": 4854,
      "VA": 4855,
      "Ġign": 4856,
      "Ġchannels": 4857,
      "Ġmembranes": 4858,
      "continu": 4859,
      "illing": 4860,
      "ĠBE": 4861,
      "Ġbackground": 4862,
      "axial": 4863,
      "Ġvan": 4864,
      "ĠPM": 4865,
      "ĠBo": 4866,
      "Li": 4867,
      "Ġsatisf": 4868,
      "Ġtypically": 4869,
      "Ġgenerate": 4870,
      "Ġembed": 4871,
      "Ġcosts": 4872,
      "sl": 4873,
      "Ġcompletely": 4874,
      "ĠEX": 4875,
      "Ġlateral": 4876,
      "Ġmit": 4877,
      "weight": 4878,
      "nov": 4879,
      "ords": 4880,
      ".............": 4881,
      "kin": 4882,
      "Ġnuclear": 4883,
      "ĠPower": 4884,
      "Ġattempt": 4885,
      "dr": 4886,
      "bor": 4887,
      "Ġconven": 4888,
      "dom": 4889,
      "ĠUS": 4890,
      "OP": 4891,
      "Ġcommunication": 4892,
      "ĠHeat": 4893,
      "rystalline": 4894,
      "Ġmember": 4895,
      "ride": 4896,
      "Ġpopulation": 4897,
      "Ġsal": 4898,
      "Ġ2018": 4899,
      "ĠControl": 4900,
      "Ġindicating": 4901,
      "Ġflows": 4902,
      "Ab": 4903,
      "ife": 4904,
      "xial": 4905,
      "periment": 4906,
      "Ġthreshold": 4907,
      "ester": 4908,
      "Ġcutting": 4909,
      "Ġangles": 4910,
      "Ġhydroph": 4911,
      "rue": 4912,
      "lier": 4913,
      "YS": 4914,
      "Ġultras": 4915,
      "ĠDuring": 4916,
      "ĠVal": 4917,
      "rins": 4918,
      "Ġgrown": 4919,
      "Ġpept": 4920,
      "Ġdiagram": 4921,
      "voir": 4922,
      "Ġoutside": 4923,
      "Ġstrategy": 4924,
      "Ġissues": 4925,
      "Ġdil": 4926,
      "Ġmolecule": 4927,
      "organic": 4928,
      "ares": 4929,
      "reen": 4930,
      "det": 4931,
      "Ġgly": 4932,
      "Ġ64": 4933,
      "specific": 4934,
      "itz": 4935,
      "ĠSuch": 4936,
      "LS": 4937,
      "imer": 4938,
      "Ġevents": 4939,
      "Ġconv": 4940,
      "Ġarg": 4941,
      "ĠSpect": 4942,
      "'_": 4943,
      "ĠFour": 4944,
      "Ġtox": 4945,
      "ek": 4946,
      "Ġblade": 4947,
      "ĠSystems": 4948,
      "Ġdriving": 4949,
      "Ġalways": 4950,
      "ĠStructure": 4951,
      "..............": 4952,
      "iring": 4953,
      "ĠÏĥ": 4954,
      "ATE": 4955,
      "Ġmatter": 4956,
      "Ġca": 4957,
      "WC": 4958,
      "angular": 4959,
      "2009": 4960,
      "ï¿½ï¿½ï¿½ï¿½": 4961,
      "Ġ72": 4962,
      "ĉĉ": 4963,
      "uting": 4964,
      "Ġsubsequent": 4965,
      "ently": 4966,
      "ĠCan": 4967,
      "Ġbr": 4968,
      "version": 4969,
      "normal": 4970,
      "ials": 4971,
      "Zn": 4972,
      "Ġforward": 4973,
      "actions": 4974,
      "Ġpressures": 4975,
      "ĠPhysics": 4976,
      "Ġcomposed": 4977,
      "Ġwidely": 4978,
      "2008": 4979,
      "Ġsuggests": 4980,
      "Ġ800": 4981,
      "Ġanalog": 4982,
      "Ġdark": 4983,
      "Ġattached": 4984,
      "250": 4985,
      "Ġbattery": 4986,
      "Ġtools": 4987,
      "Ġwhose": 4988,
      "Ġboard": 4989,
      "agen": 4990,
      "Ġly": 4991,
      "Ġopening": 4992,
      "umines": 4993,
      "ĠComput": 4994,
      "adem": 4995,
      "Ġ?": 4996,
      "Ġbed": 4997,
      "cement": 4998,
      "OI": 4999,
      "Ġculture": 5000,
      "Ġemerg": 5001,
      "plies": 5002,
      "...............": 5003,
      "Ġclearly": 5004,
      "Ġtend": 5005,
      "ĠProcess": 5006,
      "Ġau": 5007,
      "ĠWater": 5008,
      "ĠMult": 5009,
      "ERS": 5010,
      "Ġmounted": 5011,
      "Ġvivo": 5012,
      "idal": 5013,
      "Ġtoo": 5014,
      "Ġelev": 5015,
      "ĠDE": 5016,
      "Ġpoor": 5017,
      "Ġrub": 5018,
      "asis": 5019,
      "Ġfine": 5020,
      "At": 5021,
      "Ġtraditional": 5022,
      "ming": 5023,
      "axis": 5024,
      "Ġdrive": 5025,
      "rite": 5026,
      "Ð¼": 5027,
      "thermal": 5028,
      "ĠSome": 5029,
      ",.": 5030,
      "ĠSchem": 5031,
      "Ġeffectively": 5032,
      "Mn": 5033,
      "ĠKim": 5034,
      "Ġspring": 5035,
      "ĠCd": 5036,
      "Ġsuccessfully": 5037,
      "ĠThermal": 5038,
      "Ġelectrolyte": 5039,
      "Ġnam": 5040,
      "character": 5041,
      "Ġ1999": 5042,
      "Ġannealing": 5043,
      "ĠIV": 5044,
      "Ġqual": 5045,
      "Ġ110": 5046,
      "otype": 5047,
      "2011": 5048,
      "Ġ77": 5049,
      "Ġprocedures": 5050,
      "rant": 5051,
      "Â£": 5052,
      "Ġbra": 5053,
      "++": 5054,
      "Ġcompet": 5055,
      "2007": 5056,
      "tered": 5057,
      "Met": 5058,
      "-(": 5059,
      "Ġmeet": 5060,
      "prov": 5061,
      "Ġcompact": 5062,
      "Ġic": 5063,
      "iness": 5064,
      "ĠSens": 5065,
      "2013": 5066,
      "enn": 5067,
      "ditionally": 5068,
      "DM": 5069,
      "Ġrise": 5070,
      "culation": 5071,
      "iminary": 5072,
      "mol": 5073,
      "ml": 5074,
      "ready": 5075,
      "Ġsurround": 5076,
      "ifier": 5077,
      "Ġocc": 5078,
      "Ġdose": 5079,
      "Ġshall": 5080,
      "stron": 5081,
      "Ġ57": 5082,
      "Ġexpress": 5083,
      "ttps": 5084,
      "such": 5085,
      "inf": 5086,
      "Ġresponses": 5087,
      "ĠRES": 5088,
      "Ġadsor": 5089,
      "Ġdetermination": 5090,
      "Ġ58": 5091,
      "2006": 5092,
      "Ġles": 5093,
      "itch": 5094,
      "concent": 5095,
      "Ġcauses": 5096,
      "deg": 5097,
      "TABLE": 5098,
      "xy": 5099,
      "Ġfav": 5100,
      "Ġtransverse": 5101,
      "ulator": 5102,
      "raulic": 5103,
      "Ġregime": 5104,
      "Ġrecomm": 5105,
      "obic": 5106,
      "rosp": 5107,
      "ummary": 5108,
      "ĠState": 5109,
      "ective": 5110,
      "ĠSH": 5111,
      "Ġarchitect": 5112,
      "Ġget": 5113,
      "material": 5114,
      "Ġprecur": 5115,
      "Ġseal": 5116,
      "Ġremains": 5117,
      "ĠÎ´": 5118,
      "App": 5119,
      "ĠSw": 5120,
      "stress": 5121,
      "long": 5122,
      "Ġscaff": 5123,
      "two": 5124,
      "ĠCharacter": 5125,
      "ĠPressure": 5126,
      "Ġcomputed": 5127,
      "âģ": 5128,
      "ĠRel": 5129,
      "2012": 5130,
      "orphous": 5131,
      "utter": 5132,
      "Ġwrit": 5133,
      "Ġlimits": 5134,
      "Ġcalculate": 5135,
      "Ġdescription": 5136,
      "Ġmus": 5137,
      "raight": 5138,
      "ĠProf": 5139,
      "Ġfindings": 5140,
      "ply": 5141,
      "Ġtransformation": 5142,
      "ACE": 5143,
      "ishing": 5144,
      "Ġ111": 5145,
      "Ġdepending": 5146,
      "ĠMethods": 5147,
      "ĠMass": 5148,
      "Ġadvanced": 5149,
      "Ġideal": 5150,
      "Ġstrains": 5151,
      "ury": 5152,
      "Ġexceed": 5153,
      "opyright": 5154,
      "served": 5155,
      "ïĢ½": 5156,
      "Ġvess": 5157,
      "ĠLee": 5158,
      "ĠZnO": 5159,
      "Ġequipped": 5160,
      "Ġattributed": 5161,
      "rained": 5162,
      "Ġpromising": 5163,
      "pa": 5164,
      "gement": 5165,
      "Ġpolarization": 5166,
      "Ð²": 5167,
      "Ġvitro": 5168,
      "ENTS": 5169,
      "yond": 5170,
      "Ñı": 5171,
      "Ġreturn": 5172,
      "Ar": 5173,
      "tions": 5174,
      "Ġdiscuss": 5175,
      "Ġwalls": 5176,
      "Ġobservation": 5177,
      "Ġvort": 5178,
      "_.": 5179,
      "Ġassessment": 5180,
      "Ġdescribes": 5181,
      "ublis": 5182,
      "Sh": 5183,
      "Ġflo": 5184,
      "space": 5185,
      "olved": 5186,
      "Ġexamples": 5187,
      "day": 5188,
      "acent": 5189,
      "ifications": 5190,
      "Ġconfigurations": 5191,
      "Ġsetup": 5192,
      "Ġunderg": 5193,
      "Ġcement": 5194,
      "Ġ59": 5195,
      "Ġnanotubes": 5196,
      "Ġec": 5197,
      "Ġthermo": 5198,
      "Ġceramic": 5199,
      "EEE": 5200,
      "Ġdistinct": 5201,
      "Ġburn": 5202,
      "Ġcarry": 5203,
      "Ïģ": 5204,
      "ano": 5205,
      "inary": 5206,
      "Ġphotoc": 5207,
      "Ġcreate": 5208,
      "DC": 5209,
      "ĠDC": 5210,
      "Ġenergies": 5211,
      "Time": 5212,
      "Ġpublished": 5213,
      "Ġcompare": 5214,
      "Ġconsumption": 5215,
      "Ġsin": 5216,
      "Ġvi": 5217,
      "aim": 5218,
      "Ġsubstit": 5219,
      "plastic": 5220,
      "åı": 5221,
      "Ġmoving": 5222,
      "125": 5223,
      "Ġdecay": 5224,
      "cription": 5225,
      "shown": 5226,
      "ilt": 5227,
      "CON": 5228,
      "Ġvisible": 5229,
      "Ġconfirmed": 5230,
      "ĠAccording": 5231,
      "icular": 5232,
      "Ġlocations": 5233,
      "ĠCA": 5234,
      "Ġreceived": 5235,
      "Ġbeams": 5236,
      "hyd": 5237,
      "TO": 5238,
      "haust": 5239,
      "Ġpred": 5240,
      "mu": 5241,
      "micro": 5242,
      "Ġcracks": 5243,
      "Ġextrem": 5244,
      "iral": 5245,
      "Ġ63": 5246,
      "utive": 5247,
      "Ġfluct": 5248,
      "ench": 5249,
      "edance": 5250,
      "Ġlens": 5251,
      "ĠFran": 5252,
      "ĠMn": 5253,
      "ĠHu": 5254,
      "power": 5255,
      "ilicon": 5256,
      "Ġcreated": 5257,
      "Ġ1998": 5258,
      "Ġdetails": 5259,
      "rane": 5260,
      "Ġatmosphere": 5261,
      "Ġearth": 5262,
      "Ġcollection": 5263,
      "Ġapproximation": 5264,
      "Ġcathode": 5265,
      "Ġsemiconductor": 5266,
      "ĠNon": 5267,
      "Ġguide": 5268,
      "Mo": 5269,
      "Ġcate": 5270,
      "Ġsalt": 5271,
      "Ġsodium": 5272,
      "ini": 5273,
      "apes": 5274,
      "rystal": 5275,
      "related": 5276,
      "doi": 5277,
      "âģĦ": 5278,
      "Ġextent": 5279,
      "cellular": 5280,
      "Be": 5281,
      "Ġcalc": 5282,
      "Ã§Ã£o": 5283,
      "EST": 5284,
      "Ġpredictions": 5285,
      "These": 5286,
      "800": 5287,
      "Ġcircular": 5288,
      "Ġformulation": 5289,
      "cir": 5290,
      "shaped": 5291,
      "ca": 5292,
      "ĠEL": 5293,
      "Ġ).": 5294,
      "âĪĹ": 5295,
      "FF": 5296,
      "reatment": 5297,
      "isture": 5298,
      "GE": 5299,
      "Ġpropose": 5300,
      "ï¿¿": 5301,
      "Ġhypot": 5302,
      "\"\"": 5303,
      "Ġft": 5304,
      "ĠInd": 5305,
      "ĠĊĠĠĠ": 5306,
      "cript": 5307,
      "ectors": 5308,
      "ĠÃħ": 5309,
      "ĠIR": 5310,
      "ĠBecause": 5311,
      "Ġrect": 5312,
      "Ġinstall": 5313,
      "ayers": 5314,
      "Ġnearly": 5315,
      "Ġmention": 5316,
      "Ġyields": 5317,
      "Ġutilized": 5318,
      "TIC": 5319,
      "Ġlatter": 5320,
      "SR": 5321,
      "ME": 5322,
      "Ġactivities": 5323,
      "Ġgreen": 5324,
      "Ġta": 5325,
      "Ġdeveloping": 5326,
      "2005": 5327,
      "Ġreliability": 5328,
      "ĠHydro": 5329,
      "ministration": 5330,
      "width": 5331,
      "Ġbuck": 5332,
      "Ġtail": 5333,
      "pass": 5334,
      "Ġ66": 5335,
      "ĠTime": 5336,
      "mi": 5337,
      "Ġcalibration": 5338,
      "Ġbalance": 5339,
      "Ġfurn": 5340,
      "Ġbias": 5341,
      "ĠIll": 5342,
      "Ġ62": 5343,
      "Ġambient": 5344,
      "ĠLaboratory": 5345,
      "Ġgraphite": 5346,
      "Ġsoc": 5347,
      "bu": 5348,
      "Ġauthor": 5349,
      "results": 5350,
      "Ġfre": 5351,
      "wall": 5352,
      "Ġmembers": 5353,
      "æĸ": 5354,
      "Ġcatalysts": 5355,
      "mix": 5356,
      "Ġcyclic": 5357,
      "Ġterminal": 5358,
      "Ġfood": 5359,
      "charg": 5360,
      "Ġsymmetry": 5361,
      "Ġstatistical": 5362,
      "ĠConference": 5363,
      "Ġeth": 5364,
      "tein": 5365,
      "location": 5366,
      "pers": 5367,
      "Ġinstalled": 5368,
      "molecular": 5369,
      "Ġleg": 5370,
      "PI": 5371,
      "sw": 5372,
      "Ġvoid": 5373,
      "BM": 5374,
      "TE": 5375,
      "echnology": 5376,
      "ead": 5377,
      "Ġensure": 5378,
      "da": 5379,
      "Ġfluor": 5380,
      "Ġnanos": 5381,
      "Ġcontext": 5382,
      "Ġpropell": 5383,
      "omal": 5384,
      "Ġseparate": 5385,
      "ipal": 5386,
      "Ġaspects": 5387,
      "itors": 5388,
      "Ġturbine": 5389,
      "ĠOver": 5390,
      "Ġnanof": 5391,
      "iii": 5392,
      "ĠLiu": 5393,
      "Ġdelay": 5394,
      "Ge": 5395,
      "ïĤ·": 5396,
      "autics": 5397,
      "Ġsilver": 5398,
      "Ġfacilit": 5399,
      "ĠBr": 5400,
      "ĠFR": 5401,
      "Ġrobust": 5402,
      "$,": 5403,
      "Ġpossibility": 5404,
      "Ġemit": 5405,
      "_,": 5406,
      "oted": 5407,
      "size": 5408,
      "ĠFil": 5409,
      "Ġexhibited": 5410,
      "Ġquite": 5411,
      "Ġquestion": 5412,
      "frequency": 5413,
      "ĠReg": 5414,
      "olecular": 5415,
      "ĠDepartment": 5416,
      "Ġadhesive": 5417,
      "ople": 5418,
      "LC": 5419,
      "Ġdisc": 5420,
      "respect": 5421,
      "Ġplural": 5422,
      "Ġintermediate": 5423,
      "Ġprotection": 5424,
      "Ġcourse": 5425,
      "periments": 5426,
      "ĠIs": 5427,
      "Ġdeviation": 5428,
      "agnet": 5429,
      "ĠPress": 5430,
      "Ġdetermining": 5431,
      "Ġends": 5432,
      "Ġheated": 5433,
      "$.": 5434,
      "Ġ67": 5435,
      "Ġworld": 5436,
      "Ġled": 5437,
      "Ġfeas": 5438,
      "Ġprove": 5439,
      "Ġroughness": 5440,
      "Ġreached": 5441,
      "Ġlongitudinal": 5442,
      "Ġindustrial": 5443,
      "POS": 5444,
      "Ġexperimentally": 5445,
      "Ġcru": 5446,
      "Ġswitch": 5447,
      "atin": 5448,
      "Ġshif": 5449,
      "However": 5450,
      "elt": 5451,
      "Ġ61": 5452,
      "Ġirradiation": 5453,
      "ng": 5454,
      "cribed": 5455,
      "ritical": 5456,
      "Ġscenari": 5457,
      "Ġbor": 5458,
      "ÏĨ": 5459,
      "rices": 5460,
      "Ġ96": 5461,
      "cool": 5462,
      "Ġgate": 5463,
      "ĠPoly": 5464,
      "Ġdesigns": 5465,
      "Ġtunnel": 5466,
      "Ġdisk": 5467,
      "Ġstr": 5468,
      "hr": 5469,
      "Ġcellular": 5470,
      "ĠPublic": 5471,
      "ĠOR": 5472,
      "Ġcorrection": 5473,
      "Ġ__": 5474,
      "SH": 5475,
      "has": 5476,
      "Ġnanow": 5477,
      "Ġdos": 5478,
      "Ġoperations": 5479,
      "ho": 5480,
      "umerical": 5481,
      "Ġsemi": 5482,
      "Â·Â·Â·Â·Â·Â·Â·Â·": 5483,
      "Ġrotor": 5484,
      "solution": 5485,
      "Ġcompressive": 5486,
      "Ġvent": 5487,
      "Ġrelaxation": 5488,
      "Ġhous": 5489,
      "Ġblue": 5490,
      "auss": 5491,
      "Ġ68": 5492,
      "vironments": 5493,
      "amera": 5494,
      "Ġcriteria": 5495,
      "Ġsusp": 5496,
      "pite": 5497,
      "urope": 5498,
      "mentation": 5499,
      "ĠPo": 5500,
      "Ġthereby": 5501,
      "Ġtransient": 5502,
      "group": 5503,
      "Ġmaintain": 5504,
      "Î¼m": 5505,
      "Ġresid": 5506,
      "omers": 5507,
      "Ġgoal": 5508,
      "Ġhex": 5509,
      "Ġorth": 5510,
      "ĠÎ¸": 5511,
      "Ġreach": 5512,
      "-_": 5513,
      "analysis": 5514,
      "ĠReview": 5515,
      "Ġconnecting": 5516,
      "ĠBar": 5517,
      "these": 5518,
      "Ġlearning": 5519,
      "ä½": 5520,
      "Ġalready": 5521,
      "facial": 5522,
      "Ġtrend": 5523,
      "Ġslope": 5524,
      "ECH": 5525,
      "ysical": 5526,
      "$-": 5527,
      "Ġ................................................................................................................": 5528,
      "Ġreflection": 5529,
      "hanol": 5530,
      "åħ": 5531,
      "Ġregular": 5532,
      "top": 5533,
      "ethylene": 5534,
      "Ġformula": 5535,
      "NP": 5536,
      "ĠÌĦ": 5537,
      "Ġgear": 5538,
      "etry": 5539,
      "ĠSn": 5540,
      "Ġconstructed": 5541,
      "finite": 5542,
      "oms": 5543,
      "Ġda": 5544,
      "Ġoverl": 5545,
      "Ġ180": 5546,
      "also": 5547,
      "forming": 5548,
      "mitt": 5549,
      "ĠBu": 5550,
      "ËĨ": 5551,
      "Ġcreep": 5552,
      "sur": 5553,
      "Ġexcept": 5554,
      "Ġimplant": 5555,
      "ĠMechan": 5556,
      "Ġkinetic": 5557,
      "Ġdisco": 5558,
      "itial": 5559,
      "ĠMA": 5560,
      "Ġtubes": 5561,
      "icine": 5562,
      "SD": 5563,
      "Ġfamily": 5564,
      "Ġdirections": 5565,
      "Ġarc": 5566,
      "etime": 5567,
      "Ġhistory": 5568,
      "ellar": 5569,
      "uly": 5570,
      "Ġvaried": 5571,
      "Ġdissol": 5572,
      "Ġput": 5573,
      "ĠProgram": 5574,
      "Ġ1997": 5575,
      "Ġmicroscope": 5576,
      "Ġexpand": 5577,
      "erman": 5578,
      "Ġacoustic": 5579,
      "Ġnet": 5580,
      "Ġstarting": 5581,
      "Ġlosses": 5582,
      "ynolds": 5583,
      "bb": 5584,
      "ĠRE": 5585,
      "Â®": 5586,
      "Ġdigital": 5587,
      "Ġcurrently": 5588,
      "Ġclassical": 5589,
      "ĠDet": 5590,
      "tra": 5591,
      "Elect": 5592,
      "hematical": 5593,
      "ĠUSA": 5594,
      "Ġstret": 5595,
      "105": 5596,
      "Ġphenomena": 5597,
      "2014": 5598,
      "Ġsynthetic": 5599,
      "vents": 5600,
      "âĪĨ": 5601,
      "cord": 5602,
      "Ġjunction": 5603,
      "coated": 5604,
      "Ġbus": 5605,
      "ather": 5606,
      "ination": 5607,
      "Ġsupporting": 5608,
      "IO": 5609,
      "rink": 5610,
      "Ġapplying": 5611,
      "ĠAR": 5612,
      "Ġfrag": 5613,
      "Ġcandid": 5614,
      "elle": 5615,
      "rically": 5616,
      "vature": 5617,
      "ĠEarth": 5618,
      "ĠOx": 5619,
      "Ġexperi": 5620,
      "Ġattention": 5621,
      "NPs": 5622,
      "pact": 5623,
      "Ïī": 5624,
      "Ġmodification": 5625,
      "Ġmarket": 5626,
      "ollowing": 5627,
      "Ġnickel": 5628,
      "ado": 5629,
      "Ġbonds": 5630,
      "Ġextra": 5631,
      "Ġtaking": 5632,
      "plas": 5633,
      "properties": 5634,
      "poly": 5635,
      "ĠDel": 5636,
      "ibrary": 5637,
      "Ġstages": 5638,
      "Ġsevere": 5639,
      "Ġbran": 5640,
      "All": 5641,
      "Ġclusters": 5642,
      "âĢľ": 5643,
      "Ġalgorithms": 5644,
      "Ġduration": 5645,
      "illary": 5646,
      "ĠPC": 5647,
      "Im": 5648,
      "Ġ69": 5649,
      "Ġdoi": 5650,
      "Ġerrors": 5651,
      "Ġstir": 5652,
      "TIT": 5653,
      "Ġexplained": 5654,
      "olt": 5655,
      "includ": 5656,
      "Ġillustrated": 5657,
      "Ġpic": 5658,
      "Ġcomplexes": 5659,
      "Ġspread": 5660,
      "Ġspacecraft": 5661,
      "Ġhttp": 5662,
      "'.": 5663,
      "Ġstop": 5664,
      "Ġimplementation": 5665,
      "TiO": 5666,
      "ĠFigures": 5667,
      "Ġinteresting": 5668,
      "oll": 5669,
      "Ġrapidly": 5670,
      "rometer": 5671,
      "Ġlat": 5672,
      "Ġconstraints": 5673,
      "outh": 5674,
      "ises": 5675,
      "Ġ76": 5676,
      "everal": 5677,
      "Â¢": 5678,
      "Ġagents": 5679,
      "Ġphenomenon": 5680,
      "Ġbur": 5681,
      "value": 5682,
      "Ġdual": 5683,
      "Ġyet": 5684,
      "Ġconvenient": 5685,
      "bre": 5686,
      "Ġcommonly": 5687,
      "ĊĠĊĠ": 5688,
      "Ġdon": 5689,
      "Ġbuffer": 5690,
      "Ġdriven": 5691,
      "Bi": 5692,
      "unc": 5693,
      "Ġchemistry": 5694,
      "design": 5695,
      "ĠMay": 5696,
      "mark": 5697,
      "Ġexperience": 5698,
      "Ġcluster": 5699,
      "Ġpositions": 5700,
      "ĠYork": 5701,
      "ats": 5702,
      "ĠAbstract": 5703,
      "Ġfocused": 5704,
      "Ġearlier": 5705,
      "Ġrotating": 5706,
      "ĠMechanical": 5707,
      "ulus": 5708,
      "Ġplotted": 5709,
      "ĠLoad": 5710,
      "Ġscrew": 5711,
      "Ġmovement": 5712,
      "rim": 5713,
      "FE": 5714,
      "ĠSm": 5715,
      "Ġhost": 5716,
      "Ġgradu": 5717,
      "ĠPe": 5718,
      "ĠmM": 5719,
      "Ġeasy": 5720,
      "ĠIEEE": 5721,
      "Ġshield": 5722,
      "pli": 5723,
      "Ġ73": 5724,
      "isting": 5725,
      "Ġ71": 5726,
      "2004": 5727,
      "Ġestablish": 5728,
      "Ġcrystalline": 5729,
      "Ġultra": 5730,
      "Ġmeasures": 5731,
      "ominal": 5732,
      "ĠCopyright": 5733,
      "auge": 5734,
      "FOR": 5735,
      "Ġcorrespond": 5736,
      "Ġcylindrical": 5737,
      "Ġkeep": 5738,
      "Ġsimultaneously": 5739,
      "seud": 5740,
      "ĠDo": 5741,
      "ĠProp": 5742,
      "ĠAnd": 5743,
      "Ġitself": 5744,
      "Wh": 5745,
      "Ġrepresentation": 5746,
      "Ġenhancement": 5747,
      "Ġpanels": 5748,
      "Int": 5749,
      "Ġreduces": 5750,
      "placement": 5751,
      "step": 5752,
      "æľ": 5753,
      "äº": 5754,
      "ĠEr": 5755,
      "angle": 5756,
      "mass": 5757,
      "Ġmiddle": 5758,
      "atalyst": 5759,
      "Ġradio": 5760,
      "ĠÎ³": 5761,
      "Ġfoam": 5762,
      "Ġallowing": 5763,
      "Ġboundaries": 5764,
      "Ġimplemented": 5765,
      "stration": 5766,
      "Ġpatient": 5767,
      "Ġprinciple": 5768,
      "EX": 5769,
      "ky": 5770,
      "ĠPO": 5771,
      "ĠBiom": 5772,
      "Ġlithium": 5773,
      "Cont": 5774,
      "Ġwheel": 5775,
      "ĠApplied": 5776,
      "Ġinert": 5777,
      "po": 5778,
      "Ġidentical": 5779,
      "Ġstraight": 5780,
      "ĠNPs": 5781,
      "Ġbuilt": 5782,
      "INE": 5783,
      "Ġedges": 5784,
      "Ġnanostructure": 5785,
      "å¤": 5786,
      "amond": 5787,
      "Ġconsisting": 5788,
      "$\\": 5789,
      "aph": 5790,
      "Ġcatalytic": 5791,
      "Ġextension": 5792,
      "ceedings": 5793,
      "Ġbegin": 5794,
      "Ġisolated": 5795,
      "Ġbrain": 5796,
      "Ġtherapy": 5797,
      "Ġgravity": 5798,
      "Ġcoil": 5799,
      "Ġdocument": 5800,
      "ĠPV": 5801,
      "Ġconsidering": 5802,
      "005": 5803,
      "ptions": 5804,
      "ĠFl": 5805,
      "ascular": 5806,
      "Ġporosity": 5807,
      "ĠJan": 5808,
      "Î»": 5809,
      "bination": 5810,
      "performance": 5811,
      "Ġhence": 5812,
      "Ġspherical": 5813,
      "Ġdissip": 5814,
      "Ġinstead": 5815,
      "uple": 5816,
      "NH": 5817,
      "Ġchanging": 5818,
      "Ġscience": 5819,
      "rape": 5820,
      "Ġ000": 5821,
      "/-": 5822,
      "GF": 5823,
      "Ġ78": 5824,
      "Ġ98": 5825,
      "after": 5826,
      "Ġtakes": 5827,
      "Mod": 5828,
      "Ġabsence": 5829,
      "polymer": 5830,
      "Ġmold": 5831,
      ")=": 5832,
      "ferent": 5833,
      "been": 5834,
      "Ġsides": 5835,
      "Ġsust": 5836,
      "Ġdemand": 5837,
      "Ġtext": 5838,
      "orption": 5839,
      "Ġcontroller": 5840,
      "rence": 5841,
      "Ġgreatly": 5842,
      "106": 5843,
      "Ġstand": 5844,
      "Ġ1996": 5845,
      "Ġextraction": 5846,
      "Ġspacing": 5847,
      "ih": 5848,
      "ĠLang": 5849,
      "Ġinfrared": 5850,
      "Ġmir": 5851,
      "ICAL": 5852,
      "Ġreservoir": 5853,
      "ka": 5854,
      "iques": 5855,
      "On": 5856,
      "Ġapply": 5857,
      "itudes": 5858,
      "Ġtub": 5859,
      "Ġnarrow": 5860,
      "Ġneutron": 5861,
      "Ġadjacent": 5862,
      "Ġperturb": 5863,
      "Ġaway": 5864,
      "yz": 5865,
      "heat": 5866,
      "ĠThree": 5867,
      "ception": 5868,
      "Ġplurality": 5869,
      "ĠAB": 5870,
      "APTER": 5871,
      "Ġdeflection": 5872,
      "Ġ105": 5873,
      "103": 5874,
      "Ġwafer": 5875,
      "Ġidentification": 5876,
      "Ġord": 5877,
      "ĠLow": 5878,
      "ĠSchematic": 5879,
      "Ġdip": 5880,
      "values": 5881,
      "direction": 5882,
      "102": 5883,
      "ubic": 5884,
      "Ġtitanium": 5885,
      "actor": 5886,
      "ilayer": 5887,
      "Ġpractice": 5888,
      "Ġmonol": 5889,
      "Sub": 5890,
      "Ġheavy": 5891,
      "Ġquantitative": 5892,
      "del": 5893,
      "FC": 5894,
      "Ġuncertainty": 5895,
      "Ġiter": 5896,
      "cussion": 5897,
      "Ġfall": 5898,
      "ĠIL": 5899,
      "Ġmethodology": 5900,
      "Ġcharged": 5901,
      "Ġsound": 5902,
      "ibly": 5903,
      "oC": 5904,
      "Au": 5905,
      "wa": 5906,
      ")]": 5907,
      "ĠForm": 5908,
      "Ġmetab": 5909,
      "Ġseparated": 5910,
      "ĠAug": 5911,
      "coupl": 5912,
      "mers": 5913,
      "Ġrepresented": 5914,
      "Ġchoice": 5915,
      "ochemical": 5916,
      "inois": 5917,
      "izations": 5918,
      "board": 5919,
      "Ġstar": 5920,
      "ĠAD": 5921,
      "Ġdefinition": 5922,
      "Ġppm": 5923,
      "Ġbelie": 5924,
      "ĠStress": 5925,
      "Ġlubric": 5926,
      "king": 5927,
      "Ġmanufacture": 5928,
      "104": 5929,
      "ĠDevelopment": 5930,
      "igma": 5931,
      "Ġcapture": 5932,
      "åĪ": 5933,
      "ĠAC": 5934,
      "Ġgrains": 5935,
      "Ġmeth": 5936,
      "ducer": 5937,
      "Ġoutlet": 5938,
      "cos": 5939,
      "Ġwhite": 5940,
      "Ġhypothes": 5941,
      "Ġconstants": 5942,
      "Ġbeyond": 5943,
      "Ġarm": 5944,
      "Ġmig": 5945,
      "Ds": 5946,
      "Ġresear": 5947,
      "ĠDue": 5948,
      "Ġanalyze": 5949,
      "Ġmentioned": 5950,
      "LA": 5951,
      "ĠCT": 5952,
      "Ġparticip": 5953,
      "Ġkinetics": 5954,
      "ĠUnder": 5955,
      "Ġdur": 5956,
      "Ġdivided": 5957,
      "mediately": 5958,
      "ĠPA": 5959,
      "Ġincident": 5960,
      "Ġvolt": 5961,
      "Test": 5962,
      "Ġstrategies": 5963,
      "140": 5964,
      "Ġpermeability": 5965,
      "Ġ74": 5966,
      "print": 5967,
      "Ġ82": 5968,
      "ÑģÑĤ": 5969,
      "while": 5970,
      "Ġmixtures": 5971,
      "igher": 5972,
      "ĠSummary": 5973,
      "ĠGroup": 5974,
      "vements": 5975,
      "åŃ¦": 5976,
      "Ġfu": 5977,
      "Ġ.....": 5978,
      "Ġcontained": 5979,
      "Ġepit": 5980,
      "Ġversion": 5981,
      "????????????????": 5982,
      "Ġoptimum": 5983,
      "Ġpay": 5984,
      "Ġspecified": 5985,
      "Ġtrue": 5986,
      "Ġ79": 5987,
      "Ġamin": 5988,
      "ĠRef": 5989,
      "acing": 5990,
      "Ġamounts": 5991,
      "Ġprotoc": 5992,
      "Ġissue": 5993,
      "Ġdamping": 5994,
      "Ġmanif": 5995,
      "Ġlabel": 5996,
      "nas": 5997,
      "Ġmap": 5998,
      "Ġexhaust": 5999,
      "Ġaver": 6000,
      "Ġrigid": 6001,
      "head": 6002,
      "Ġlock": 6003,
      "Ġloaded": 6004,
      "Ġextremely": 6005,
      "Ġcorresponds": 6006,
      "Ġ140": 6007,
      "ĠSolid": 6008,
      "ki": 6009,
      "Ġdecomposition": 6010,
      "ĠSecond": 6011,
      "dynamic": 6012,
      "ĠMHz": 6013,
      "ĠPolymer": 6014,
      "itance": 6015,
      "ĠIS": 6016,
      "Ġmice": 6017,
      "Ġcontin": 6018,
      "Ġionic": 6019,
      "Ġamorphous": 6020,
      "Ġdensities": 6021,
      "ĠProperties": 6022,
      "gas": 6023,
      "Ġpsi": 6024,
      "Ġquick": 6025,
      "Ġneutral": 6026,
      "ĠĠĠĠĠĠĠĠĠĠ": 6027,
      "anc": 6028,
      "ĠMin": 6029,
      "Ġfitting": 6030,
      "Ġmelting": 6031,
      "isition": 6032,
      "finement": 6033,
      "Ñĸ": 6034,
      "efficient": 6035,
      "AND": 6036,
      "Ġchains": 6037,
      "new": 6038,
      "ĠPH": 6039,
      "Ġchild": 6040,
      "Ġinch": 6041,
      "ĠCarbon": 6042,
      "ĠPhase": 6043,
      "Ġsocial": 6044,
      "ĠMax": 6045,
      "edge": 6046,
      "Ġsampling": 6047,
      "mult": 6048,
      "Ġnorm": 6049,
      "Ġanode": 6050,
      "rinsic": 6051,
      "ĠFer": 6052,
      "mL": 6053,
      "Ġwelding": 6054,
      "Ġ1995": 6055,
      "second": 6056,
      "Ġslip": 6057,
      "Ġnanocom": 6058,
      "solute": 6059,
      "Ġinteract": 6060,
      "Ġembedded": 6061,
      "ĠÎµ": 6062,
      "ciples": 6063,
      "potential": 6064,
      "Ġsliding": 6065,
      "Ġabsorb": 6066,
      "~~~~": 6067,
      "junction": 6068,
      "Ġgran": 6069,
      "Ġdefine": 6070,
      "Ġā": 6071,
      "ĠMaterial": 6072,
      "Ġstored": 6073,
      "Ġclamp": 6074,
      "Ġepoxy": 6075,
      "Ġproducing": 6076,
      "Åĵ": 6077,
      "uthor": 6078,
      "rade": 6079,
      "ĠINT": 6080,
      "Ġpain": 6081,
      "NR": 6082,
      "Ġoptimized": 6083,
      "rapeut": 6084,
      "density": 6085,
      "Ġhomogeneous": 6086,
      "pendicular": 6087,
      "ĠTech": 6088,
      "2015": 6089,
      "Ġwindow": 6090,
      "Ġvolum": 6091,
      "ster": 6092,
      "Ġsearch": 6093,
      "Ġlet": 6094,
      "IA": 6095,
      "ĠNano": 6096,
      "othermal": 6097,
      "Ġexistence": 6098,
      "Ġpeople": 6099,
      "Ġ97": 6100,
      "vin": 6101,
      "Ġreconst": 6102,
      "Ġconsequ": 6103,
      "Ġ87": 6104,
      "Ġhardness": 6105,
      "Ġlook": 6106,
      "Ġ81": 6107,
      "number": 6108,
      "TEM": 6109,
      "uminescence": 6110,
      "otes": 6111,
      "Ġassumption": 6112,
      "Ġexplain": 6113,
      "MB": 6114,
      "ĠSA": 6115,
      "Ġcontrolling": 6116,
      "Ġhighlight": 6117,
      "ĠWork": 6118,
      "Ġremaining": 6119,
      "ĠSpring": 6120,
      "Su": 6121,
      "ford": 6122,
      "Ġice": 6123,
      "esis": 6124,
      "culated": 6125,
      "Ġsle": 6126,
      "ĠInformation": 6127,
      "ĠFin": 6128,
      "Per": 6129,
      "Ġmonths": 6130,
      "lysis": 6131,
      "Ġintegral": 6132,
      "ĠSiO": 6133,
      "ificial": 6134,
      "Ġenable": 6135,
      "Ġremove": 6136,
      "solid": 6137,
      "Ġsurv": 6138,
      "rif": 6139,
      "omes": 6140,
      "ATIONS": 6141,
      "rl": 6142,
      "Ġmelt": 6143,
      "Ġbands": 6144,
      "Ġlowest": 6145,
      "Ġintegr": 6146,
      "Ġconduction": 6147,
      "rist": 6148,
      "class": 6149,
      "idel": 6150,
      "ĠÎ»": 6151,
      "âĢ¢âĢ¢âĢ¢âĢ¢": 6152,
      "systems": 6153,
      "Ġrear": 6154,
      "Ġharm": 6155,
      "conditions": 6156,
      "Ġ106": 6157,
      "ius": 6158,
      "Ġchip": 6159,
      "Ġcircum": 6160,
      "ĠPd": 6161,
      "Ġneur": 6162,
      "ĠCurrent": 6163,
      "hole": 6164,
      "åĲ": 6165,
      "ille": 6166,
      "Ġanten": 6167,
      "Ġestimation": 6168,
      "Ġcomparable": 6169,
      "Ġ93": 6170,
      "FIGURE": 6171,
      "Ġtim": 6172,
      "Ġtempor": 6173,
      "Ġchanged": 6174,
      "Ġothers": 6175,
      "etary": 6176,
      "Ġdiscrete": 6177,
      "Ġmobility": 6178,
      "materials": 6179,
      "Ġadequ": 6180,
      "Ġestimates": 6181,
      "DUC": 6182,
      "Ġwavegu": 6183,
      "Ġpiece": 6184,
      "pirical": 6185,
      "ponents": 6186,
      "osens": 6187,
      "Ġnanoparticle": 6188,
      "âĻ": 6189,
      "Ġcomplexity": 6190,
      "controll": 6191,
      "Ġrevers": 6192,
      "Ġarrays": 6193,
      "IAL": 6194,
      "Ġrubber": 6195,
      "Ġmoisture": 6196,
      "Ġreliable": 6197,
      "Î³": 6198,
      "002": 6199,
      "ocom": 6200,
      "iÃ³n": 6201,
      "achment": 6202,
      "Ġdimensional": 6203,
      "Ġacceleration": 6204,
      "hard": 6205,
      "vironmental": 6206,
      "ioxide": 6207,
      "Ġplots": 6208,
      "Î´": 6209,
      "ãĥ": 6210,
      "Ġangular": 6211,
      "Ġcomparing": 6212,
      "ounds": 6213,
      "ĠMac": 6214,
      "Ġhour": 6215,
      "Ġhar": 6216,
      "Ġcyt": 6217,
      "Ġnut": 6218,
      "Ġscales": 6219,
      "ĠAnt": 6220,
      "etermined": 6221,
      "icy": 6222,
      "ronic": 6223,
      "Ġ83": 6224,
      "length": 6225,
      "ĠEurope": 6226,
      "Ġdroplet": 6227,
      "Ġones": 6228,
      "there": 6229,
      "ĠReynolds": 6230,
      "Ġconjug": 6231,
      "BT": 6232,
      "rac": 6233,
      "ARY": 6234,
      "ĠPublis": 6235,
      "Ġinsight": 6236,
      "Ġgalax": 6237,
      "thanol": 6238,
      "Ġml": 6239,
      "Ġvac": 6240,
      "ani": 6241,
      "Ġranging": 6242,
      "Ġnodes": 6243,
      "Ġrob": 6244,
      "ĠSC": 6245,
      "year": 6246,
      "approxim": 6247,
      "ĠCOMP": 6248,
      "Ġsch": 6249,
      "Ġmer": 6250,
      "NS": 6251,
      "gebra": 6252,
      "Ġaircraft": 6253,
      "Ġbars": 6254,
      "acryl": 6255,
      "Ġ84": 6256,
      "rt": 6257,
      "ĨĴ": 6258,
      "Ġexchang": 6259,
      "Ġflame": 6260,
      "Le": 6261,
      "ĠGas": 6262,
      "oxyl": 6263,
      "icro": 6264,
      "Ġ89": 6265,
      "Ġstudents": 6266,
      "Ġsurvey": 6267,
      "icial": 6268,
      "Ġfibre": 6269,
      "Ġ86": 6270,
      "zoelectric": 6271,
      "Ġthank": 6272,
      "Ġ92": 6273,
      "PV": 6274,
      "Ġhydraulic": 6275,
      "Ġ88": 6276,
      "fi": 6277,
      "entation": 6278,
      "Ġresources": 6279,
      "cast": 6280,
      "uclear": 6281,
      "raz": 6282,
      "FS": 6283,
      "Ġconductive": 6284,
      "âĢĿ,": 6285,
      "angu": 6286,
      "ĠRecent": 6287,
      "Ġdecreasing": 6288,
      "Ġreinforced": 6289,
      "Ġimpedance": 6290,
      "doped": 6291,
      "ĠĊĠĠĠĠĊ": 6292,
      "lucose": 6293,
      "ĠLu": 6294,
      "fficiency": 6295,
      "ĠSimilar": 6296,
      "ato": 6297,
      "Ġcontract": 6298,
      "180": 6299,
      "Ġtask": 6300,
      "âľ": 6301,
      "http": 6302,
      "rystals": 6303,
      "ulse": 6304,
      "Ġbrief": 6305,
      "parent": 6306,
      "control": 6307,
      "Ġeduc": 6308,
      "ĠLO": 6309,
      "dem": 6310,
      "bil": 6311,
      "fully": 6312,
      "ery": 6313,
      "Ġbridge": 6314,
      "ĠPE": 6315,
      "Ġcamera": 6316,
      "DO": 6317,
      "Ġchloride": 6318,
      "ĠNat": 6319,
      "arse": 6320,
      "lab": 6321,
      "Ġconcepts": 6322,
      "gence": 6323,
      "Ġpercentage": 6324,
      "GO": 6325,
      "tenance": 6326,
      "Ġinvolves": 6327,
      "ovol": 6328,
      "Ġproportional": 6329,
      "treated": 6330,
      "Ġobjects": 6331,
      "uations": 6332,
      "oys": 6333,
      "Ġinsp": 6334,
      "mid": 6335,
      "itic": 6336,
      "Ġdye": 6337,
      "ĠUnited": 6338,
      "Ġetching": 6339,
      "130": 6340,
      "Ġrib": 6341,
      "ĠOther": 6342,
      "imethyl": 6343,
      "ponential": 6344,
      "ĠOh": 6345,
      "sten": 6346,
      "illi": 6347,
      "Ġpara": 6348,
      "Ġcontrols": 6349,
      "Ġgases": 6350,
      "ĠPark": 6351,
      "metal": 6352,
      "Ġlas": 6353,
      "ifi": 6354,
      "peak": 6355,
      "Ġ700": 6356,
      "Ġscreen": 6357,
      "ĠEN": 6358,
      "VED": 6359,
      "speed": 6360,
      "Ġdiscre": 6361,
      "Ġum": 6362,
      "Ġ104": 6363,
      "Ġcry": 6364,
      "Ġ94": 6365,
      "oration": 6366,
      "ismic": 6367,
      "Ġstainless": 6368,
      "Ġ91": 6369,
      "iaxial": 6370,
      "Ġcompat": 6371,
      "Ġadding": 6372,
      "Ġsolve": 6373,
      "Ġaccompl": 6374,
      "will": 6375,
      "osion": 6376,
      "Ġquad": 6377,
      "ĠStandard": 6378,
      "irable": 6379,
      "ĠAut": 6380,
      "Ġenvironments": 6381,
      "Ġ---": 6382,
      "Ġreasonable": 6383,
      "Ġarbit": 6384,
      "Ġown": 6385,
      "result": 6386,
      "TING": 6387,
      "Ġprobably": 6388,
      "iley": 6389,
      "Ġ160": 6390,
      "160": 6391,
      "Ġdest": 6392,
      "Ġextracted": 6393,
      "chron": 6394,
      "ĠFIG": 6395,
      "oding": 6396,
      "standing": 6397,
      "Ġdrag": 6398,
      "Ġ103": 6399,
      "Ġdust": 6400,
      "Ġexists": 6401,
      "Ġclaim": 6402,
      "Ġnormalized": 6403,
      "ĠMa": 6404,
      "Ġincub": 6405,
      "ÄĹ": 6406,
      "ĠNote": 6407,
      "Å³": 6408,
      "ATA": 6409,
      "containing": 6410,
      "2003": 6411,
      "Ġtemper": 6412,
      "Ġinvolving": 6413,
      "ĠSW": 6414,
      "Ġrepeated": 6415,
      "igg": 6416,
      "LU": 6417,
      "Ġemph": 6418,
      "rect": 6419,
      "body": 6420,
      "Ġ125": 6421,
      "Ġfurnace": 6422,
      "Ġwing": 6423,
      "Ġten": 6424,
      "Zr": 6425,
      "====": 6426,
      "CG": 6427,
      "Ġeffectiveness": 6428,
      "Ġscal": 6429,
      "Ġpull": 6430,
      "Ca": 6431,
      ",_": 6432,
      "Des": 6433,
      "åĮ": 6434,
      "Ġquantity": 6435,
      "Ġmomentum": 6436,
      "Ġtoler": 6437,
      "nment": 6438,
      "Ġsolved": 6439,
      "Ġplanar": 6440,
      "ipher": 6441,
      "Ġaccurately": 6442,
      "linked": 6443,
      "CHAPTER": 6444,
      "ĠSolar": 6445,
      "Ġell": 6446,
      "integ": 6447,
      "ĠBa": 6448,
      "va": 6449,
      "ĠCons": 6450,
      "ÐµÐ½": 6451,
      "ĠEm": 6452,
      "Ġinterfacial": 6453,
      "ney": 6454,
      ",-": 6455,
      "Ġplants": 6456,
      "omb": 6457,
      "Ġfilled": 6458,
      "ĠJohn": 6459,
      "Ġur": 6460,
      "artz": 6461,
      "Ġinterfaces": 6462,
      "ĠType": 6463,
      "tor": 6464,
      "Ġcurvature": 6465,
      "Ġtorque": 6466,
      "Ġmil": 6467,
      "Ġleakage": 6468,
      "rea": 6469,
      "alized": 6470,
      "abrication": 6471,
      "Ġopposite": 6472,
      "chers": 6473,
      "relation": 6474,
      "icated": 6475,
      "Ġnote": 6476,
      "comput": 6477,
      "plan": 6478,
      "Trans": 6479,
      "Ġcracking": 6480,
      "small": 6481,
      "ivated": 6482,
      "Na": 6483,
      "Ġextens": 6484,
      "ï£´": 6485,
      "ĠStates": 6486,
      "iforn": 6487,
      "Ġop": 6488,
      "ÏĦ": 6489,
      "REF": 6490,
      "Ġillumin": 6491,
      "unar": 6492,
      "ĠYang": 6493,
      "Ġphysics": 6494,
      "Ġkm": 6495,
      "Ġvib": 6496,
      "crack": 6497,
      "Ġoffer": 6498,
      "show": 6499,
      "pportun": 6500,
      "Ġ1994": 6501,
      "Ġemissions": 6502,
      ".[": 6503,
      "ĠAeron": 6504,
      "Ġstem": 6505,
      "Ġchallenges": 6506,
      "ara": 6507,
      "Sn": 6508,
      "Ġeconomic": 6509,
      "ĠXRD": 6510,
      "ilities": 6511,
      "ACK": 6512,
      "lock": 6513,
      "à¬": 6514,
      "product": 6515,
      "Ð´": 6516,
      "Ġclo": 6517,
      "Ġdiffus": 6518,
      "ĠOrgan": 6519,
      "Ġquasi": 6520,
      "Ġraw": 6521,
      "NF": 6522,
      "Ġcomprising": 6523,
      "Ġrequirement": 6524,
      "ĠZr": 6525,
      "Br": 6526,
      "valuation": 6527,
      "Ġprel": 6528,
      "Ġexplicit": 6529,
      "Ġextr": 6530,
      "Pt": 6531,
      "asons": 6532,
      "Ġpix": 6533,
      "ĠStudy": 6534,
      "Ġmaxim": 6535,
      "yste": 6536,
      "ĠAM": 6537,
      "ĠAdditionally": 6538,
      "Ġimproving": 6539,
      "ORT": 6540,
      "Ap": 6541,
      "assembly": 6542,
      "only": 6543,
      "Ġassay": 6544,
      "ude": 6545,
      "ĠÐ¿": 6546,
      "Ġmove": 6547,
      "Ġmethyl": 6548,
      "ellow": 6549,
      "Ġcollis": 6550,
      "Ġdistort": 6551,
      "ifornia": 6552,
      "structural": 6553,
      "ynom": 6554,
      "Ġsegment": 6555,
      "Ġinterval": 6556,
      "comm": 6557,
      "Ġinsulation": 6558,
      "Ġgeometric": 6559,
      "Ġalter": 6560,
      "amide": 6561,
      "Ġswitching": 6562,
      "Ġher": 6563,
      "atalytic": 6564,
      "135": 6565,
      "ENC": 6566,
      "Â«": 6567,
      "iston": 6568,
      "Ġnode": 6569,
      "Ġimpur": 6570,
      "tures": 6571,
      "Ġseconds": 6572,
      "Equ": 6573,
      "ĠNature": 6574,
      "channel": 6575,
      "otropy": 6576,
      "Ġregarding": 6577,
      "Ġprimarily": 6578,
      "Ġintroduce": 6579,
      "ril": 6580,
      "ĠIllinois": 6581,
      "Ġ1990": 6582,
      "Ġlimitations": 6583,
      "van": 6584,
      "tok": 6585,
      "ĠOct": 6586,
      "If": 6587,
      "lag": 6588,
      "Ġresponsible": 6589,
      "BR": 6590,
      "Ġprecision": 6591,
      "Ġunderlying": 6592,
      "HE": 6593,
      "Ġphoton": 6594,
      "ptake": 6595,
      "BLEM": 6596,
      "Ġlb": 6597,
      "Ġ01": 6598,
      "Ġsharp": 6599,
      "Ġnor": 6600,
      "plicated": 6601,
      "Ġmedical": 6602,
      "Ġdynam": 6603,
      "deed": 6604,
      "ĠBer": 6605,
      "ĠPhysical": 6606,
      "Ġgroove": 6607,
      "Ġblocks": 6608,
      "ĠMS": 6609,
      "vest": 6610,
      "chlor": 6611,
      "Ġshapes": 6612,
      "sample": 6613,
      "Ġtex": 6614,
      "ĠAI": 6615,
      "Med": 6616,
      "ĠÏĨ": 6617,
      "servation": 6618,
      "press": 6619,
      "Ġfire": 6620,
      "Ġcorrelated": 6621,
      "MC": 6622,
      "Ġrepresentative": 6623,
      "when": 6624,
      "ĠĊĠĠĊ": 6625,
      "particle": 6626,
      "nc": 6627,
      "significant": 6628,
      "Ġcompleted": 6629,
      "ATER": 6630,
      "La": 6631,
      "IGHT": 6632,
      "ailure": 6633,
      "vable": 6634,
      "Ġtraject": 6635,
      "Ġ1993": 6636,
      "ĠPS": 6637,
      "ĠïĢ©": 6638,
      "ĠME": 6639,
      ".'": 6640,
      "ĠChina": 6641,
      "imeter": 6642,
      "Ġundergo": 6643,
      "Ġaud": 6644,
      "Ġcomputation": 6645,
      "Ġsurrounding": 6646,
      "jet": 6647,
      "Ġsimply": 6648,
      "STIT": 6649,
      "ĠSO": 6650,
      "then": 6651,
      "ĠĠĠĠĠĠĠĠĠĠĠ": 6652,
      "700": 6653,
      "Ġdeform": 6654,
      "aussian": 6655,
      "orter": 6656,
      "ovolta": 6657,
      "lease": 6658,
      "Ġfem": 6659,
      "distribution": 6660,
      "ospace": 6661,
      "ĠOf": 6662,
      "Ġsurfact": 6663,
      "cles": 6664,
      "INT": 6665,
      "Ġpartially": 6666,
      "hex": 6667,
      "ames": 6668,
      "ĠPartic": 6669,
      "Ġligand": 6670,
      "Ġbaseline": 6671,
      "ĠRF": 6672,
      "Ġcharacterize": 6673,
      "Ġexhibits": 6674,
      "ĠCP": 6675,
      "Ġscientific": 6676,
      "abase": 6677,
      "Ġmodeled": 6678,
      "ĠNov": 6679,
      "Ġoccup": 6680,
      "stable": 6681,
      "Ġjoints": 6682,
      "ociation": 6683,
      "Spec": 6684,
      "Ġregener": 6685,
      "Ġvelocities": 6686,
      "Ġreports": 6687,
      "uminum": 6688,
      "ĠJune": 6689,
      "pur": 6690,
      "thal": 6691,
      "Ġsaturation": 6692,
      "quant": 6693,
      "Ġsed": 6694,
      "Ġ102": 6695,
      "Ġmmol": 6696,
      "ĠAnn": 6697,
      "Ġroot": 6698,
      "ana": 6699,
      "Ġworks": 6700,
      "predic": 6701,
      "Ñħ": 6702,
      "ãĢĤ": 6703,
      "Ther": 6704,
      "ĠPROBLEM": 6705,
      "0001": 6706,
      "asks": 6707,
      "ĠHy": 6708,
      "rupt": 6709,
      "Vol": 6710,
      "develop": 6711,
      "oney": 6712,
      "rice": 6713,
      "Ġtraining": 6714,
      "awa": 6715,
      "Ġcalcium": 6716,
      "Ġmaintained": 6717,
      "Ġdoping": 6718,
      "Ġgenes": 6719,
      "ĠSo": 6720,
      "Ġbinary": 6721,
      "istor": 6722,
      "gn": 6723,
      "kt": 6724,
      "University": 6725,
      "polar": 6726,
      "ych": 6727,
      "Ġpossess": 6728,
      "YST": 6729,
      "fo": 6730,
      "Ġinfection": 6731,
      "Ġ115": 6732,
      "Ġvirt": 6733,
      "ĠOut": 6734,
      "Ñĭ": 6735,
      "Ġbubble": 6736,
      "Ġ130": 6737,
      "during": 6738,
      "havior": 6739,
      "orient": 6740,
      "erc": 6741,
      "Ġelectromagnetic": 6742,
      "into": 6743,
      "Ġminimal": 6744,
      "Pre": 6745,
      "Â»": 6746,
      "ida": 6747,
      "Ñĩ": 6748,
      "observed": 6749,
      "Ġproof": 6750,
      "Ġwritten": 6751,
      "Ġdoped": 6752,
      "ĠDifferent": 6753,
      "fort": 6754,
      "ïĢŃ": 6755,
      "Ġheld": 6756,
      "Ġgauge": 6757,
      "Ġmobile": 6758,
      "Ġexamine": 6759,
      "Ġonce": 6760,
      "Ġincorporated": 6761,
      "cope": 6762,
      "ĠED": 6763,
      "ĠSciences": 6764,
      "ĠMart": 6765,
      "gov": 6766,
      "crystalline": 6767,
      "Ġ1992": 6768,
      "Ġadopted": 6769,
      "both": 6770,
      "DNA": 6771,
      "Mg": 6772,
      "ingu": 6773,
      "apse": 6774,
      "ĠĠĠĠĠĠĠĠĠĠĠĠ": 6775,
      "ĠAppendix": 6776,
      "liquid": 6777,
      "Ġgrowing": 6778,
      "ĠHence": 6779,
      "helial": 6780,
      "vention": 6781,
      "Ġfeedback": 6782,
      "Ġextensive": 6783,
      "/(": 6784,
      "inear": 6785,
      "Å¡": 6786,
      "Ġperiodic": 6787,
      "Ġprecipit": 6788,
      "Ġtravel": 6789,
      "Ġreceptor": 6790,
      "Ġnanom": 6791,
      "methyl": 6792,
      "With": 6793,
      "romatic": 6794,
      "Ġsym": 6795,
      "108": 6796,
      "Ġattack": 6797,
      "Ġethanol": 6798,
      "Sim": 6799,
      "Ġfluids": 6800,
      "omin": 6801,
      "Temperature": 6802,
      "Ġalco": 6803,
      "Ġperpendicular": 6804,
      "Ġserum": 6805,
      "pare": 6806,
      "107": 6807,
      "112": 6808,
      "intering": 6809,
      "ĠBas": 6810,
      "Ġopportun": 6811,
      "Ġrepair": 6812,
      "antile": 6813,
      "ĠTM": 6814,
      "ama": 6815,
      "ALL": 6816,
      "Ġapplicable": 6817,
      "istent": 6818,
      "2002": 6819,
      "UV": 6820,
      "Ġcompens": 6821,
      "ideo": 6822,
      "Ġmanip": 6823,
      "otox": 6824,
      "Ġprecursor": 6825,
      "xi": 6826,
      "reme": 6827,
      "particles": 6828,
      "ken": 6829,
      "Ġpreliminary": 6830,
      "Ġpairs": 6831,
      "ĠPUR": 6832,
      "Ġseems": 6833,
      "Ġphosphor": 6834,
      "Ġextend": 6835,
      "phosph": 6836,
      "åº": 6837,
      "Ġ@": 6838,
      "Ġvessel": 6839,
      "DR": 6840,
      "rates": 6841,
      "ĠâĪĨ": 6842,
      "Ġ112": 6843,
      "arn": 6844,
      "When": 6845,
      "ç»": 6846,
      "ĠUN": 6847,
      "Ġacids": 6848,
      "Ġscan": 6849,
      "ĠPb": 6850,
      "IE": 6851,
      "Ġobvious": 6852,
      "Ġfacility": 6853,
      "Ġpurposes": 6854,
      "beam": 6855,
      "Ġenables": 6856,
      "acet": 6857,
      "ellite": 6858,
      "Ġnamely": 6859,
      "ivities": 6860,
      "inger": 6861,
      "sen": 6862,
      "ele": 6863,
      "ula": 6864,
      "Ġlifetime": 6865,
      "ligible": 6866,
      "Ġprograms": 6867,
      "ĠUlt": 6868,
      "BA": 6869,
      "Ġalignment": 6870,
      "inciples": 6871,
      "Ġenab": 6872,
      "ker": 6873,
      "Ġactivated": 6874,
      "jective": 6875,
      "Ġcompre": 6876,
      "ĠmA": 6877,
      "Ġmathematical": 6878,
      "115": 6879,
      "Ġrow": 6880,
      "rr": 6881,
      "earing": 6882,
      "ĠÎĶ": 6883,
      "SEM": 6884,
      "super": 6885,
      "Ġmicron": 6886,
      "ĠTechnical": 6887,
      "ko": 6888,
      "eller": 6889,
      "ĠBut": 6890,
      "text": 6891,
      "Ġarrangement": 6892,
      "ociated": 6893,
      "Ġoperator": 6894,
      "Ġpenetration": 6895,
      "Ġmoder": 6896,
      "Ġcust": 6897,
      "ĠField": 6898,
      "Ġcovered": 6899,
      "Ġdrying": 6900,
      "Ġreinforcement": 6901,
      "ingly": 6902,
      "correspon": 6903,
      "Dep": 6904,
      "hedral": 6905,
      "ĠSE": 6906,
      "Ġproved": 6907,
      "Ġgenerator": 6908,
      "After": 6909,
      "ĠOptical": 6910,
      "ĠEffects": 6911,
      "Ġsituation": 6912,
      "Ġ......": 6913,
      "Ġlisted": 6914,
      "cience": 6915,
      "HA": 6916,
      "Ġbonded": 6917,
      "uman": 6918,
      "case": 6919,
      "Ġhollow": 6920,
      "Appendix": 6921,
      "oparticles": 6922,
      "Ġefforts": 6923,
      "Ġtetra": 6924,
      "obtained": 6925,
      "Ġconsideration": 6926,
      "Ġalkal": 6927,
      "otyp": 6928,
      "ricult": 6929,
      "esium": 6930,
      "olecules": 6931,
      "ovsk": 6932,
      "................................................": 6933,
      "alpha": 6934,
      "Ġinitially": 6935,
      "Ġscaling": 6936,
      "critical": 6937,
      "Ġturbulent": 6938,
      "Ġunknown": 6939,
      "appe": 6940,
      "Page": 6941,
      "Ġpores": 6942,
      "ĠDI": 6943,
      "OG": 6944,
      "åĮĸ": 6945,
      "ĠEv": 6946,
      "rol": 6947,
      "010": 6948,
      "Ġinvestigations": 6949,
      "Ġways": 6950,
      "oto": 6951,
      "Ġlengths": 6952,
      "Ġelast": 6953,
      "ĠïĤ": 6954,
      "ademic": 6955,
      "Sc": 6956,
      "109": 6957,
      "eks": 6958,
      "Ġcomprehen": 6959,
      "Ġcriterion": 6960,
      "Ġdissolved": 6961,
      "ASE": 6962,
      "ĠSU": 6963,
      "otor": 6964,
      "thickness": 6965,
      "2016": 6966,
      "ĠFE": 6967,
      "lined": 6968,
      "Ġsuspension": 6969,
      "ĠPEG": 6970,
      "Ġinj": 6971,
      "Ġobserve": 6972,
      "Ġexplore": 6973,
      "figuration": 6974,
      "ĠÏģ": 6975,
      "rapeutic": 6976,
      "NN": 6977,
      "mode": 6978,
      "support": 6979,
      "Ġround": 6980,
      "Ġpeptide": 6981,
      "each": 6982,
      "Ġdioxide": 6983,
      "Ġoxides": 6984,
      "Ġstrip": 6985,
      "Ã¨": 6986,
      "Ġdrain": 6987,
      "AI": 6988,
      "Ġperson": 6989,
      "Ġproton": 6990,
      "ĠTesting": 6991,
      "Ġprincipal": 6992,
      "Ġsheets": 6993,
      "Ġtough": 6994,
      "VER": 6995,
      "Ġvehicles": 6996,
      "Ġminimize": 6997,
      "dy": 6998,
      "Ġdominant": 6999,
      "POSE": 7000,
      "EMS": 7001,
      "Ġdomains": 7002,
      "ĠSOLVED": 7003,
      "fold": 7004,
      "ewis": 7005,
      "Ġsuperior": 7006,
      "treatment": 7007,
      "Ġconsiderable": 7008,
      "uniform": 7009,
      "tu": 7010,
      "Ġcas": 7011,
      "Ġlangu": 7012,
      "Ġradical": 7013,
      "Ġarchitecture": 7014,
      "ungsten": 7015,
      "Ġnucleation": 7016,
      "Ġinterference": 7017,
      "Ġgenerating": 7018,
      "Ġpolymerization": 7019,
      "Ġconfirm": 7020,
      "possible": 7021,
      "ĠID": 7022,
      "ĠAeronautics": 7023,
      "Ġ02": 7024,
      "cycle": 7025,
      "ĠCL": 7026,
      "ĠSeveral": 7027,
      "inch": 7028,
      "Ġneigh": 7029,
      "ĠMost": 7030,
      "Cross": 7031,
      "Ġintrinsic": 7032,
      "Ġvon": 7033,
      "aken": 7034,
      "ĠBio": 7035,
      "Am": 7036,
      "film": 7037,
      "Ġreactive": 7038,
      "ĠGr": 7039,
      "Ġintroduction": 7040,
      "IZ": 7041,
      "Ġsolub": 7042,
      "ĠConclusions": 7043,
      "Ġmis": 7044,
      "Ġrev": 7045,
      "respectively": 7046,
      "-'": 7047,
      "inning": 7048,
      "Ġ1991": 7049,
      "ĠSun": 7050,
      "Ġselective": 7051,
      "Ġinfl": 7052,
      "Ġster": 7053,
      "Ġtreatments": 7054,
      "mechan": 7055,
      "essor": 7056,
      "ĠDiv": 7057,
      "acements": 7058,
      "Ġprinting": 7059,
      "Ġinches": 7060,
      "Ġexit": 7061,
      "Ġproduces": 7062,
      "Ġacquisition": 7063,
      "unctional": 7064,
      "Ġid": 7065,
      "ĠCNT": 7066,
      "ĠCap": 7067,
      "Ġnominal": 7068,
      "From": 7069,
      "Ġcation": 7070,
      "atio": 7071,
      "Ġalone": 7072,
      "Pr": 7073,
      "Ġtow": 7074,
      "Research": 7075,
      "Ġrecording": 7076,
      "ĠTyp": 7077,
      "Ġactuator": 7078,
      "ĠCells": 7079,
      "Ox": 7080,
      "ĠPURPOSE": 7081,
      "cut": 7082,
      "othe": 7083,
      "Ġmetric": 7084,
      "uscript": 7085,
      "actic": 7086,
      "measured": 7087,
      "Ġswe": 7088,
      "Ġslab": 7089,
      "strength": 7090,
      "Ġminor": 7091,
      "Ġfol": 7092,
      "concentration": 7093,
      "mechanical": 7094,
      "Ġcontribute": 7095,
      "Ġ350": 7096,
      "ski": 7097,
      "Ġabsolute": 7098,
      "Â©": 7099,
      "rd": 7100,
      "TC": 7101,
      "Ġsimulate": 7102,
      "Ġquantities": 7103,
      "Ġconcluded": 7104,
      "Ġyour": 7105,
      "ione": 7106,
      "blue": 7107,
      "ĠNH": 7108,
      "Ġpropellant": 7109,
      "ante": 7110,
      "ĠLim": 7111,
      "Ġpad": 7112,
      ")*": 7113,
      "ĠHam": 7114,
      "Ġmodelling": 7115,
      "ashing": 7116,
      "Ġspecifically": 7117,
      "Ġfaster": 7118,
      "lifer": 7119,
      "ceived": 7120,
      "ropy": 7121,
      "Ġmineral": 7122,
      "memb": 7123,
      "Ġevaporation": 7124,
      "BC": 7125,
      "veloc": 7126,
      "ionic": 7127,
      "Ġtissues": 7128,
      "ĠPerformance": 7129,
      "MF": 7130,
      "reng": 7131,
      "Ġvortex": 7132,
      "bial": 7133,
      "poration": 7134,
      "ĠRNA": 7135,
      "Ġintern": 7136,
      "ĠÏĦ": 7137,
      "Ġclay": 7138,
      "Ġperipher": 7139,
      "Ġexplo": 7140,
      "ĠAv": 7141,
      "similar": 7142,
      "å®": 7143,
      "^^": 7144,
      "stein": 7145,
      "APP": 7146,
      "ĠAFM": 7147,
      "hind": 7148,
      "enzene": 7149,
      "%%%%": 7150,
      "Ġhold": 7151,
      "Ġpotentially": 7152,
      "Ġhardware": 7153,
      "ĠYoung": 7154,
      "Ġperiods": 7155,
      "Ġreverse": 7156,
      "Ġsteam": 7157,
      "WR": 7158,
      "ĠLE": 7159,
      "ĠCalifornia": 7160,
      "gress": 7161,
      "Ġsubst": 7162,
      "ochem": 7163,
      "sil": 7164,
      "Ġpoll": 7165,
      "BER": 7166,
      "wt": 7167,
      "Ġzinc": 7168,
      "ico": 7169,
      "Ġpreser": 7170,
      "ĠQuant": 7171,
      "cells": 7172,
      "ifies": 7173,
      "Ġbuckling": 7174,
      "Ġstatus": 7175,
      "Ġcapacitance": 7176,
      "azard": 7177,
      "Ġsuperconduct": 7178,
      "Ġbenefits": 7179,
      "Results": 7180,
      "ham": 7181,
      "Ġplus": 7182,
      "sertation": 7183,
      "ties": 7184,
      "Ġencaps": 7185,
      "ĠProceedings": 7186,
      "Ne": 7187,
      "Î©": 7188,
      "Ġmechanics": 7189,
      "oi": 7190,
      "anned": 7191,
      "Ġ113": 7192,
      "One": 7193,
      "âĹ¦": 7194,
      "ĠAS": 7195,
      "role": 7196,
      "dd": 7197,
      "Ð¾Ð²": 7198,
      "Ġrings": 7199,
      "')": 7200,
      "ĠSiC": 7201,
      "Ġautomatic": 7202,
      "rest": 7203,
      "Ġtransitions": 7204,
      "ading": 7205,
      "Ġpseud": 7206,
      "123": 7207,
      "ĠHar": 7208,
      "ĠFourier": 7209,
      "Ġsm": 7210,
      "Ġatmospheric": 7211,
      "Ġoperate": 7212,
      "Ġsymmetric": 7213,
      "GG": 7214,
      "ĠNot": 7215,
      "Ġ114": 7216,
      "rip": 7217,
      "Ġ117": 7218,
      "oe": 7219,
      "Ġclosely": 7220,
      "Ġlos": 7221,
      "ÑĮ": 7222,
      "neg": 7223,
      "Ġmirror": 7224,
      "ĠCommun": 7225,
      "Ġcontributions": 7226,
      "due": 7227,
      "contact": 7228,
      "resolution": 7229,
      "olymers": 7230,
      "comes": 7231,
      "Ġpulses": 7232,
      "capac": 7233,
      "about": 7234,
      "ĠOper": 7235,
      "Ġuptake": 7236,
      "Ġinnov": 7237,
      "(-": 7238,
      "Ġdeb": 7239,
      "otive": 7240,
      "Ġâī¤": 7241,
      "{\\": 7242,
      "Ġlargest": 7243,
      "ications": 7244,
      "Ġenzyme": 7245,
      "typ": 7246,
      "Ġsun": 7247,
      "Ġabund": 7248,
      "loading": 7249,
      "ĀĀ": 7250,
      "Sch": 7251,
      "1111": 7252,
      "yrene": 7253,
      "ĠoC": 7254,
      "enter": 7255,
      "+-": 7256,
      "oly": 7257,
      "Ġweb": 7258,
      "Ġ107": 7259,
      "RC": 7260,
      "Ġmaintenance": 7261,
      "transfer": 7262,
      "iate": 7263,
      "Ġranges": 7264,
      "ĠMD": 7265,
      "ificance": 7266,
      "Ġcontents": 7267,
      "ulose": 7268,
      "Ġpiezoelectric": 7269,
      "Ġdried": 7270,
      "Ġatten": 7271,
      "voltage": 7272,
      "Ġreveal": 7273,
      "ĠRu": 7274,
      "Ġmodules": 7275,
      "ĠSuper": 7276,
      "Ġdate": 7277,
      "Ġexcit": 7278,
      "ĠRoy": 7279,
      "iverse": 7280,
      "what": 7281,
      "Ġdepic": 7282,
      "ĠProc": 7283,
      "ĠĊĠĊĠĊĠĊĠĊĠĊĠĊĠĊĠĊĠĊĠĊĠĊĠĊĠĊĠĊĠĊ": 7284,
      "ĠSynthesis": 7285,
      "sat": 7286,
      "Ġfavor": 7287,
      "Ġdecision": 7288,
      "Ġmarg": 7289,
      "NC": 7290,
      "Ġclassification": 7291,
      "ria": 7292,
      "Ġperfect": 7293,
      "ĠDav": 7294,
      "ĠDiscussion": 7295,
      "Ġhousing": 7296,
      "Ġcloud": 7297,
      "Ġoperational": 7298,
      "tee": 7299,
      "ELL": 7300,
      "ĠNumber": 7301,
      "tl": 7302,
      "2001": 7303,
      "amics": 7304,
      "Ġdownstream": 7305,
      "Ġmarked": 7306,
      "ulin": 7307,
      "Ġdas": 7308,
      "main": 7309,
      "Ġheater": 7310,
      "ĠĂ": 7311,
      "Ġaging": 7312,
      "Ġapproximate": 7313,
      "Ġmask": 7314,
      "RT": 7315,
      "Ġcommunity": 7316,
      "ibers": 7317,
      "Ġultrasonic": 7318,
      "otion": 7319,
      "omas": 7320,
      "Ġinspection": 7321,
      "ĠRT": 7322,
      "ĠCONSTIT": 7323,
      "\".": 7324,
      "ensile": 7325,
      "lower": 7326,
      "Ġsequences": 7327,
      "bles": 7328,
      "Ġformal": 7329,
      "Ġï¿": 7330,
      "paring": 7331,
      "loaded": 7332,
      "ĠGeneral": 7333,
      "Ġchallenge": 7334,
      "Ġdiamond": 7335,
      "ION": 7336,
      "xx": 7337,
      "left": 7338,
      "Ġma": 7339,
      "âĢĺ": 7340,
      "Ġsummary": 7341,
      "itis": 7342,
      "Ġ(-": 7343,
      "Ġcollo": 7344,
      "Ġ900": 7345,
      "Ġslee": 7346,
      "Ġbacteria": 7347,
      "ECTION": 7348,
      "Ġbatteries": 7349,
      "ls": 7350,
      "pie": 7351,
      "elled": 7352,
      "would": 7353,
      "ircon": 7354,
      "ytical": 7355,
      "Ġplug": 7356,
      "_-": 7357,
      "ĠÌĥ": 7358,
      "Ġperforming": 7359,
      "ĠSingle": 7360,
      "ĠPan": 7361,
      "Ġlimiting": 7362,
      "Ġkept": 7363,
      "Ġfluorescent": 7364,
      "Ġinstability": 7365,
      "ĠExt": 7366,
      ",'": 7367,
      "ĠĊĠĊĠĊĠĊĠ": 7368,
      "Ġbuild": 7369,
      "Ġcollagen": 7370,
      "Ġwood": 7371,
      "Ġgr": 7372,
      "Ġcapabilities": 7373,
      "ailability": 7374,
      "Ġelevated": 7375,
      "Ġassumptions": 7376,
      "113": 7377,
      "Ġï£": 7378,
      "ĠLab": 7379,
      "Ġglucose": 7380,
      "114": 7381,
      "Ġze": 7382,
      "SiO": 7383,
      "New": 7384,
      "ĠOff": 7385,
      "cn": 7386,
      "Ġcompositions": 7387,
      "ĠSOLUTION": 7388,
      "Ġinverse": 7389,
      "Ġoperated": 7390,
      "Ġenter": 7391,
      "oco": 7392,
      "UD": 7393,
      "Ġreasons": 7394,
      "Ġantenna": 7395,
      "Ġreferred": 7396,
      "ĠApplications": 7397,
      "DUCTION": 7398,
      "Ġlate": 7399,
      "Ġsuscept": 7400,
      "Ġreleased": 7401,
      "uling": 7402,
      "ANCE": 7403,
      "Ġexec": 7404,
      "Ġadjusted": 7405,
      "riger": 7406,
      "encing": 7407,
      "1016": 7408,
      "clude": 7409,
      "Ġarbitrary": 7410,
      "Ġtransmit": 7411,
      "umps": 7412,
      "isson": 7413,
      "ĠDES": 7414,
      "racted": 7415,
      "atures": 7416,
      "stage": 7417,
      "Ġammon": 7418,
      "Ġneural": 7419,
      "Ġonset": 7420,
      "Ġconvergence": 7421,
      "ĠSpringer": 7422,
      "Ġrelationships": 7423,
      "hand": 7424,
      "hi": 7425,
      "FA": 7426,
      "Ġexpect": 7427,
      "aylor": 7428,
      "Ġrespective": 7429,
      "ĠCer": 7430,
      "Ġmatrices": 7431,
      "edom": 7432,
      "Ð·": 7433,
      "ostic": 7434,
      "Ġdeploy": 7435,
      "HC": 7436,
      "ĠCONSTITUTION": 7437,
      "ped": 7438,
      "Ste": 7439,
      "forms": 7440,
      "iiii": 7441,
      "element": 7442,
      "stood": 7443,
      "Ġmar": 7444,
      "ĠHall": 7445,
      "Ġlocalized": 7446,
      "isons": 7447,
      "Ġrare": 7448,
      "investig": 7449,
      "Ġru": 7450,
      "Ġelong": 7451,
      "ĠJuly": 7452,
      "Ġcalib": 7453,
      "Ġeigen": 7454,
      "Ġpolynom": 7455,
      "Ġexcited": 7456,
      "ĠCe": 7457,
      "Ġfluctuations": 7458,
      "iller": 7459,
      "004": 7460,
      "Ġmounting": 7461,
      "rought": 7462,
      "oun": 7463,
      "Dis": 7464,
      "Ġmen": 7465,
      "ECHN": 7466,
      "gap": 7467,
      "etters": 7468,
      "Ġfinding": 7469,
      "report": 7470,
      "Ġ108": 7471,
      "Ġbath": 7472,
      "Ġdiagnosis": 7473,
      "Ġunivers": 7474,
      "Ġseem": 7475,
      "measurements": 7476,
      "ĠSl": 7477,
      "Ġengines": 7478,
      "agonal": 7479,
      "ĠDiff": 7480,
      "Ġinstallation": 7481,
      "Ġtrends": 7482,
      "Ġsummarized": 7483,
      "plex": 7484,
      "\"'": 7485,
      "Ġturbulence": 7486,
      "Ġusers": 7487,
      "##": 7488,
      "Based": 7489,
      "fluidic": 7490,
      "matrix": 7491,
      "iological": 7492,
      "wards": 7493,
      "Ġessentially": 7494,
      "mes": 7495,
      "represent": 7496,
      "ĠStudies": 7497,
      "Since": 7498,
      "Ġcleaning": 7499,
      "âĭ": 7500,
      "eff": 7501,
      "itored": 7502,
      "ĠÃ©": 7503,
      "Ġultimate": 7504,
      "portant": 7505,
      "Ġlaunch": 7506,
      "Ġupd": 7507,
      "Ġalgebra": 7508,
      "Ġsense": 7509,
      "eles": 7510,
      "Ġoccurring": 7511,
      "ĠWu": 7512,
      "ĠAP": 7513,
      "vals": 7514,
      "Ġtoughness": 7515,
      "Ġsatur": 7516,
      "Ġresearchers": 7517,
      "orb": 7518,
      "ocytes": 7519,
      "fluence": 7520,
      "Ġpiston": 7521,
      "Ġcapillary": 7522,
      "Ġbit": 7523,
      "fa": 7524,
      "Ġthread": 7525,
      "Ġcontainer": 7526,
      "ĠâĪ¼": 7527,
      "Ġ109": 7528,
      ".âĢĿ": 7529,
      "ĠÃł": 7530,
      "ATURE": 7531,
      "defined": 7532,
      "their": 7533,
      "curity": 7534,
      "Ġdies": 7535,
      "Ġgeneralized": 7536,
      "experimental": 7537,
      "Ġsupports": 7538,
      "003": 7539,
      "Ġresistivity": 7540,
      "NE": 7541,
      "Ġdrugs": 7542,
      "gels": 7543,
      "area": 7544,
      "https": 7545,
      "Ġchildren": 7546,
      "Ġsuggesting": 7547,
      "Ġdisplayed": 7548,
      "ien": 7549,
      "may": 7550,
      "cem": 7551,
      "ĠDO": 7552,
      "hydrogen": 7553,
      "manent": 7554,
      "Ġamino": 7555,
      "Ġregression": 7556,
      "Ġsphere": 7557,
      "ITH": 7558,
      "ĠĠĠĠĠĠĠĠĠĠĠĠĠ": 7559,
      "ĠAdvanced": 7560,
      "Ġcontamin": 7561,
      "Ġï¿½": 7562,
      "Ġia": 7563,
      "Ġprocessed": 7564,
      "cost": 7565,
      "Ġtape": 7566,
      "istant": 7567,
      "Ġspot": 7568,
      "Ġsustain": 7569,
      "ĠNP": 7570,
      "Ġmetall": 7571,
      "Ġcorrelations": 7572,
      "BE": 7573,
      "uary": 7574,
      "Ġassessed": 7575,
      "Ġmort": 7576,
      "Ġimmers": 7577,
      "ĠMor": 7578,
      "Ġovercome": 7579,
      "Ġcable": 7580,
      "Ġinstance": 7581,
      "structures": 7582,
      "grav": 7583,
      "stim": 7584,
      "Ġempirical": 7585,
      "ĠStructural": 7586,
      "Ġfresh": 7587,
      "Chem": 7588,
      "Ġderivatives": 7589,
      "Ġcubic": 7590,
      "Ġtransferred": 7591,
      "Ġeight": 7592,
      "Ġinduce": 7593,
      "Ġfoot": 7594,
      "ĠInstr": 7595,
      "ä»": 7596,
      "mobil": 7597,
      "El": 7598,
      "Ġ119": 7599,
      "Ġted": 7600,
      "ĠNumerical": 7601,
      "PRO": 7602,
      "STM": 7603,
      "Ġspeeds": 7604,
      "Ġstars": 7605,
      "Ġweeks": 7606,
      "ĠAppro": 7607,
      "Ġperm": 7608,
      "ĠDirect": 7609,
      "Ġsputter": 7610,
      "Ġjo": 7611,
      "parameters": 7612,
      "Ġcooled": 7613,
      "sch": 7614,
      "tration": 7615,
      "ills": 7616,
      "Ġtrace": 7617,
      "Ġreadily": 7618,
      "Ġremark": 7619,
      "DT": 7620,
      "Ġderive": 7621,
      "ĠMR": 7622,
      "ierarch": 7623,
      "arc": 7624,
      "sin": 7625,
      "Ġmal": 7626,
      "lies": 7627,
      "HR": 7628,
      "ĠEngineers": 7629,
      "Ġlift": 7630,
      "oretical": 7631,
      "Ġcall": 7632,
      "Ġperspect": 7633,
      "Or": 7634,
      "è®": 7635,
      "ĠEuropean": 7636,
      "ĠGreen": 7637,
      "ĠTransfer": 7638,
      "proble": 7639,
      "Ġrolling": 7640,
      "Ġrunning": 7641,
      "ĠDu": 7642,
      "amage": 7643,
      "pended": 7644,
      "Ġreceiving": 7645,
      "Ġevident": 7646,
      "ĠScientific": 7647,
      "diameter": 7648,
      "Ġmigration": 7649,
      "Ġho": 7650,
      "Ġpyro": 7651,
      "Ġgrating": 7652,
      "Ġreviewed": 7653,
      "Ġcoordinate": 7654,
      "Ġfigures": 7655,
      "ni": 7656,
      "ister": 7657,
      "advant": 7658,
      "Ġ116": 7659,
      "Ġtight": 7660,
      "Ġreflected": 7661,
      "roll": 7662,
      "Ġdistingu": 7663,
      "Ġconclusion": 7664,
      "Ġbear": 7665,
      "modified": 7666,
      "Ġexponential": 7667,
      "argets": 7668,
      "ovoltaic": 7669,
      "Ġconducting": 7670,
      "Ġoriented": 7671,
      "ĠSept": 7672,
      "Ġexplored": 7673,
      "imals": 7674,
      "ĠVolume": 7675,
      "figure": 7676,
      "Ġì": 7677,
      "Ġhumidity": 7678,
      "Ġdetecting": 7679,
      "atile": 7680,
      "ita": 7681,
      "ĠLong": 7682,
      "XX": 7683,
      "Ġaccord": 7684,
      "ĠCir": 7685,
      "Ġmajority": 7686,
      "ãĢģ": 7687,
      "Cor": 7688,
      "Ġembod": 7689,
      "Ġlipid": 7690,
      "including": 7691,
      "116": 7692,
      "Ġsimplified": 7693,
      "Ġdisturb": 7694,
      "Ġrealized": 7695,
      "Ġcategor": 7696,
      "Ġhandle": 7697,
      "fram": 7698,
      "tz": 7699,
      "ĠTra": 7700,
      "Ġcontacts": 7701,
      "ĠSample": 7702,
      "ĠFlight": 7703,
      "cip": 7704,
      "ella": 7705,
      "ĠGra": 7706,
      "Ġinitiation": 7707,
      "ĠWiley": 7708,
      "higher": 7709,
      "ĠJap": 7710,
      "Ġtensor": 7711,
      "differe": 7712,
      "High": 7713,
      "zing": 7714,
      "FP": 7715,
      "ĠStrain": 7716,
      "Ġnanotube": 7717,
      "ln": 7718,
      "................................................................................": 7719,
      "fit": 7720,
      "Ġadequate": 7721,
      "itos": 7722,
      "Ġmicrowave": 7723,
      "imide": 7724,
      "gle": 7725,
      "ĠLA": 7726,
      "Ġâİ": 7727,
      "ĠïĢŃ": 7728,
      "decre": 7729,
      "Ġnegligible": 7730,
      "Ġprecise": 7731,
      "127": 7732,
      "ÏĢ": 7733,
      "Ġpage": 7734,
      "Ġcurrents": 7735,
      "cyl": 7736,
      "Ġce": 7737,
      "Ġmaps": 7738,
      "Ġsufficiently": 7739,
      "Ġcolumns": 7740,
      "ĠMOD": 7741,
      "900": 7742,
      "Ġinherent": 7743,
      "Ġdense": 7744,
      "Ġseismic": 7745,
      "Ġacquired": 7746,
      "Ġligands": 7747,
      "Ġassuming": 7748,
      "Ġschematic": 7749,
      "ette": 7750,
      "ners": 7751,
      "Ġrpm": 7752,
      "ĠMark": 7753,
      "rifug": 7754,
      "ymph": 7755,
      "ĠPT": 7756,
      "Ġpolymeric": 7757,
      "shell": 7758,
      "Ġserve": 7759,
      "Ġvideo": 7760,
      "Ġdroplets": 7761,
      "Ġasympt": 7762,
      "Ġrail": 7763,
      "Ġutilizing": 7764,
      "Ġbelong": 7765,
      "ĠTotal": 7766,
      "'t": 7767,
      "aciÃ³n": 7768,
      "lege": 7769,
      "ÑĢÐ°": 7770,
      "Cal": 7771,
      "dep": 7772,
      "ï£¯": 7773,
      "Ġboron": 7774,
      "Ġbright": 7775,
      "Ġincidence": 7776,
      "Ġsintering": 7777,
      "ochastic": 7778,
      "Ġnanowires": 7779,
      "ĠForce": 7780,
      "valu": 7781,
      "dist": 7782,
      "factor": 7783,
      "Ġspan": 7784,
      "Ġscreening": 7785,
      "first": 7786,
      "Ġtang": 7787,
      "Ġfile": 7788,
      "ga": 7789,
      "atigue": 7790,
      "larg": 7791,
      "ERM": 7792,
      "ĠDie": 7793,
      "117": 7794,
      "Ġappeared": 7795,
      "Ġsi": 7796,
      "ĠCase": 7797,
      "Ġren": 7798,
      "tem": 7799,
      "Ġoffers": 7800,
      "Ġprotect": 7801,
      "iencies": 7802,
      "Ð¿": 7803,
      "Ġextreme": 7804,
      "oster": 7805,
      "Ġanisotropy": 7806,
      "ĠTheir": 7807,
      "ĠOH": 7808,
      "Ġpowders": 7809,
      "came": 7810,
      "Ġaggregate": 7811,
      "350": 7812,
      "ichi": 7813,
      "118": 7814,
      "Ġmethanol": 7815,
      "Ġpotentials": 7816,
      "Ġwaveguide": 7817,
      "Nan": 7818,
      "ULTS": 7819,
      "Ġ),": 7820,
      "Ġtexture": 7821,
      "Ġincl": 7822,
      "Method": 7823,
      "UE": 7824,
      "Ġisotropic": 7825,
      "Ġdend": 7826,
      "121": 7827,
      "ogenesis": 7828,
      "Ġclasses": 7829,
      "Ġmuscle": 7830,
      "ĠĠĊĠĊĠ": 7831,
      "cis": 7832,
      "Ġantic": 7833,
      "aces": 7834,
      "Ġsatisfy": 7835,
      "Ġgenetic": 7836,
      "inese": 7837,
      "Ġlamp": 7838,
      "controlled": 7839,
      "volume": 7840,
      "ĠActa": 7841,
      "inforced": 7842,
      "lets": 7843,
      "Ġaccumulation": 7844,
      "Ġwires": 7845,
      "Ġrectangular": 7846,
      "ogram": 7847,
      "Ġdistances": 7848,
      "study": 7849,
      "Ġcycling": 7850,
      "ĠYu": 7851,
      "velocity": 7852,
      "Ġaligned": 7853,
      "Ġcoal": 7854,
      "Ġprotocol": 7855,
      "ĠGO": 7856,
      "Ġprecipitation": 7857,
      "ĊĠĠ": 7858,
      "three": 7859,
      "ylation": 7860,
      "Ġfi": 7861,
      "Ġmapping": 7862,
      "Ġcandidate": 7863,
      "irements": 7864,
      "prot": 7865,
      "Ġsystematic": 7866,
      "Ġfault": 7867,
      "gery": 7868,
      "Ġprobes": 7869,
      "Ġscaffolds": 7870,
      "Ġcoverage": 7871,
      "ĠEM": 7872,
      "Ġ118": 7873,
      "Ġsulfur": 7874,
      "ĠÌĩ": 7875,
      "hanced": 7876,
      "SL": 7877,
      "ĠInteg": 7878,
      "growth": 7879,
      "aro": 7880,
      "Ġneuro": 7881,
      "lb": 7882,
      "ĠÌĪ": 7883,
      "ĠFluid": 7884,
      "ĠLED": 7885,
      "Ġinterior": 7886,
      "Ġsolving": 7887,
      "Ġpassive": 7888,
      "ĠMolecular": 7889,
      "Ġliver": 7890,
      "ferential": 7891,
      "Ġmicrom": 7892,
      "Ġpicture": 7893,
      "Ġtransparent": 7894,
      "ĠPP": 7895,
      "Ġbenefit": 7896,
      "ĠSimulation": 7897,
      "Ġfusion": 7898,
      "ui": 7899,
      "Ġsubstantially": 7900,
      "Ġdatabase": 7901,
      "Ass": 7902,
      "ĠVan": 7903,
      "Ġlist": 7904,
      "Ġcrucial": 7905,
      "Ġstring": 7906,
      "Ġchromat": 7907,
      "122": 7908,
      "ampl": 7909,
      "By": 7910,
      "Ġprototype": 7911,
      "osomes": 7912,
      "Ġdiameters": 7913,
      "Ġidea": 7914,
      "Ġprinciples": 7915,
      "ateral": 7916,
      "itatively": 7917,
      "estern": 7918,
      "ĠRo": 7919,
      "sonic": 7920,
      "ĠHealth": 7921,
      "dx": 7922,
      "Ġnanop": 7923,
      "Ġgeometries": 7924,
      "phalt": 7925,
      "ricted": 7926,
      "Ġinvari": 7927,
      "Ġaddressed": 7928,
      "Ġinjected": 7929,
      "ipt": 7930,
      "Ġcausing": 7931,
      "orescence": 7932,
      "Ġcomplement": 7933,
      "Ġthermodynamic": 7934,
      "fol": 7935,
      "Ġmi": 7936,
      "Ã©s": 7937,
      "Ġrecycl": 7938,
      "ashington": 7939,
      "Ġcomprehensive": 7940,
      "Ġwords": 7941,
      "è¿": 7942,
      "ĠAuthor": 7943,
      "Ġ450": 7944,
      "ocation": 7945,
      "resis": 7946,
      "gly": 7947,
      "Ġsubstantial": 7948,
      "Ġbig": 7949,
      "mg": 7950,
      "ĠPage": 7951,
      "Ġ2019": 7952,
      "ASS": 7953,
      "RODUCTION": 7954,
      "effective": 7955,
      "Ġdischarg": 7956,
      "WL": 7957,
      "119": 7958,
      "ĠStat": 7959,
      "Ġalcohol": 7960,
      "ĠĠĠĠĠĠĠĠĠĠĠĠĠĠĠĠĠĠĠĠĠĠĠĠĠĠĠĠĠĠĠĠĠĠĠĠĠĠĠĠĠĠĠĠĠĠĠĠ": 7961,
      "compared": 7962,
      "ĠMET": 7963,
      "ï£´ï£´": 7964,
      "nasa": 7965,
      "ĠRem": 7966,
      "ĠGal": 7967,
      "large": 7968,
      "ĠSL": 7969,
      "book": 7970,
      "Ġvisco": 7971,
      "activity": 7972,
      "Ġonline": 7973,
      "Ġpav": 7974,
      "Ġincrement": 7975,
      "PEG": 7976,
      "Ġmatch": 7977,
      "ĠGaussian": 7978,
      "Ġprolifer": 7979,
      "ĠSign": 7980,
      "fic": 7981,
      "ĉčĠĠĉčĠĠ": 7982,
      "TIR": 7983,
      ".%": 7984,
      "adi": 7985,
      "vex": 7986,
      "riers": 7987,
      "ĠCharacterization": 7988,
      "dt": 7989,
      "ĠFeb": 7990,
      "ĠÐ²": 7991,
      "Col": 7992,
      "Ġheart": 7993,
      "âī": 7994,
      "aker": 7995,
      "Ġfitted": 7996,
      "Ġos": 7997,
      "WH": 7998,
      "bridge": 7999,
      "Ġcopolymer": 8000,
      "Ġmodulation": 8001,
      ")).": 8002,
      "rn": 8003,
      "Ġinfluenced": 8004,
      "Ġselectivity": 8005,
      "Ġmu": 8006,
      "Ġappearance": 8007,
      "cross": 8008,
      "Ġexamination": 8009,
      "situ": 8010,
      "ĠÏī": 8011,
      "Ġ1989": 8012,
      "Ġtemporal": 8013,
      "Ġcone": 8014,
      "Ġpharm": 8015,
      "magnetic": 8016,
      "times": 8017,
      "Ġwar": 8018,
      "Ġcircuits": 8019,
      "Ġillustrate": 8020,
      "regular": 8021,
      "ĠFL": 8022,
      "ACH": 8023,
      "ĠTor": 8024,
      "Ġbehind": 8025,
      "Ġrecommended": 8026,
      "Ġsealing": 8027,
      "iolet": 8028,
      "Ġfan": 8029,
      ".(": 8030,
      "MPa": 8031,
      "Ġmonitored": 8032,
      "Ġrule": 8033,
      "direct": 8034,
      "Ġgave": 8035,
      "Ġparent": 8036,
      "Ġsplit": 8037,
      "Ġib": 8038,
      "National": 8039,
      "ocket": 8040,
      "Ġvaries": 8041,
      "edical": 8042,
      "ĠLetters": 8043,
      "complex": 8044,
      "ĠSR": 8045,
      "Ġaffects": 8046,
      "Ġanisotropic": 8047,
      "Ġrhe": 8048,
      "ĠNorth": 8049,
      "ĠChang": 8050,
      "Ġdiseases": 8051,
      "Anal": 8052,
      "Ġplanes": 8053,
      "Ġvariability": 8054,
      "Ġhydrophobic": 8055,
      "CrossRef": 8056,
      "bel": 8057,
      "Ġelectrostatic": 8058,
      "Ġhypothesis": 8059,
      "ĠMetal": 8060,
      "ht": 8061,
      "Ġpathway": 8062,
      "cuit": 8063,
      "found": 8064,
      "Ġresonant": 8065,
      "Ġfair": 8066,
      "antilever": 8067,
      "Ġimprovements": 8068,
      "Ġram": 8069,
      "âĪĳ": 8070,
      "ĠĊĠĠĠĠĠ": 8071,
      "Ġdislocation": 8072,
      "ĠMW": 8073,
      "ophys": 8074,
      "Ġcasting": 8075,
      "fluor": 8076,
      "Ġdiffer": 8077,
      "Ġtransl": 8078,
      "lands": 8079,
      "Ġdesirable": 8080,
      "period": 8081,
      "Ġobtaining": 8082,
      "ĠGaAs": 8083,
      "æĢ": 8084,
      "Ġmonomer": 8085,
      "ÎĶ": 8086,
      "Ġpackage": 8087,
      "ĠPlas": 8088,
      "single": 8089,
      "Ġ1200": 8090,
      "Ġmodern": 8091,
      "ails": 8092,
      "ĠAnother": 8093,
      "ĠProject": 8094,
      "EAR": 8095,
      "ĠTurb": 8096,
      "Ġtheories": 8097,
      "ĠUK": 8098,
      "Ġconstitu": 8099,
      "pris": 8100,
      "pres": 8101,
      "Ġanomal": 8102,
      "samples": 8103,
      "ĠSTR": 8104,
      "Î·": 8105,
      "ĠFac": 8106,
      "ously": 8107,
      "tonian": 8108,
      "Ġhem": 8109,
      "Ġattractive": 8110,
      "idance": 8111,
      "Total": 8112,
      "ogeneity": 8113,
      "Ġknow": 8114,
      "Ġprojection": 8115,
      "ĠHer": 8116,
      "within": 8117,
      "124": 8118,
      "Ġeducation": 8119,
      "Ġbeginning": 8120,
      "Ġprinted": 8121,
      "ailed": 8122,
      "Ġrats": 8123,
      "oments": 8124,
      "Cd": 8125,
      "oidal": 8126,
      "Ġhr": 8127,
      "Ġassume": 8128,
      "ysteresis": 8129,
      "BN": 8130,
      "operative": 8131,
      "Ġartificial": 8132,
      "ITE": 8133,
      "urrent": 8134,
      "apped": 8135,
      "Ġviscous": 8136,
      "Ġă": 8137,
      "ba": 8138,
      "graphs": 8139,
      "Ġdissipation": 8140,
      "rous": 8141,
      "170": 8142,
      "USION": 8143,
      "Ġsubsequently": 8144,
      "igital": 8145,
      "ĠStructures": 8146,
      "Ġthor": 8147,
      "Ġfed": 8148,
      "Ġcopy": 8149,
      "Ġlinked": 8150,
      "Ġ}": 8151,
      "Ġcombinations": 8152,
      "Ġnumerous": 8153,
      "Ġinterconn": 8154,
      "ĠAdministration": 8155,
      "ĠPAR": 8156,
      "2017": 8157,
      "ĠâĢĻ": 8158,
      "odal": 8159,
      "015": 8160,
      "Ġshrink": 8161,
      "Ġsolubility": 8162,
      ")+": 8163,
      "ĠCorporation": 8164,
      "HS": 8165,
      "126": 8166,
      "gg": 8167,
      "Ġconstitutive": 8168,
      "Ġlarg": 8169,
      "response": 8170,
      "Ġalumina": 8171,
      "emiconduct": 8172,
      "pan": 8173,
      "Ġruns": 8174,
      "Bl": 8175,
      "ĠMol": 8176,
      "gory": 8177,
      "Ġmetabol": 8178,
      "Ġremained": 8179,
      "ĠMars": 8180,
      "Ġsignificance": 8181,
      "Ġtherapeutic": 8182,
      "termin": 8183,
      "Ġtele": 8184,
      "FL": 8185,
      "Ġreaches": 8186,
      "component": 8187,
      ":_": 8188,
      "128": 8189,
      "Ġaz": 8190,
      "Ġaccomplished": 8191,
      "house": 8192,
      "lines": 8193,
      "Ġcomputing": 8194,
      "Ġplays": 8195,
      "ender": 8196,
      "Ġii": 8197,
      "expl": 8198,
      "Ġphosphate": 8199,
      "ENDI": 8200,
      "Ĥ¬": 8201,
      "Ġspaces": 8202,
      "ĠGerman": 8203,
      "ĠFuel": 8204,
      "ĠBack": 8205,
      "Ġvirus": 8206,
      "Ġsolids": 8207,
      "Ġimmediately": 8208,
      "uming": 8209,
      "Ġcome": 8210,
      "Ġrotational": 8211,
      "Ġthereof": 8212,
      "Ġtoxicity": 8213,
      "Ġoste": 8214,
      "Ġacco": 8215,
      "ĠTer": 8216,
      "derived": 8217,
      "Ġolig": 8218,
      "Ġconcentrated": 8219,
      "oids": 8220,
      "Ø§": 8221,
      "Qu": 8222,
      "nson": 8223,
      "Ġinorganic": 8224,
      "Ġlanguage": 8225,
      "ĠBiol": 8226,
      "ĠHA": 8227,
      "134": 8228,
      "ĠPot": 8229,
      "Ġannealed": 8230,
      "Ġscenario": 8231,
      "ANT": 8232,
      "Ġorders": 8233,
      "perture": 8234,
      "ĠTa": 8235,
      "References": 8236,
      "-----": 8237,
      "00000": 8238,
      "Ġdrawn": 8239,
      "tri": 8240,
      "Ġroller": 8241,
      "cher": 8242,
      "accur": 8243,
      "maximum": 8244,
      "Ġsupplied": 8245,
      "Section": 8246,
      "associated": 8247,
      "ods": 8248,
      "ĠMarch": 8249,
      "Ġmachining": 8250,
      "ĠMany": 8251,
      "Ġstandards": 8252,
      "Ġmatching": 8253,
      "Ġsing": 8254,
      "inding": 8255,
      "DL": 8256,
      "ados": 8257,
      "mean": 8258,
      "Ġetch": 8259,
      "ĠCNTs": 8260,
      "reci": 8261,
      "ymmetry": 8262,
      "Ġpron": 8263,
      "local": 8264,
      "Ġderivative": 8265,
      "203": 8266,
      "Ġcuring": 8267,
      "ĠChinese": 8268,
      "ĠTheory": 8269,
      "iet": 8270,
      "Ġcompute": 8271,
      "Ġcarriers": 8272,
      "ĠMean": 8273,
      "ATOR": 8274,
      "025": 8275,
      "Effect": 8276,
      "ilation": 8277,
      "ixed": 8278,
      "Ġmodifications": 8279,
      "Ġdiode": 8280,
      "Rep": 8281,
      "called": 8282,
      "Ġefficiently": 8283,
      "Ġorbital": 8284,
      "ĠCompany": 8285,
      "ĠTaylor": 8286,
      "Ġheterogeneous": 8287,
      "Ġpartition": 8288,
      "valent": 8289,
      "Ġseat": 8290,
      "Ġlung": 8291,
      "kl": 8292,
      "æŀ": 8293,
      "ondon": 8294,
      "ĠTests": 8295,
      "Ġgamma": 8296,
      "Ġconsequence": 8297,
      "Ġve": 8298,
      "Ġfacilitate": 8299,
      "ĠTs": 8300,
      "Ġadsorbed": 8301,
      "access": 8302,
      "Ġmacro": 8303,
      "Ġinserted": 8304,
      "aters": 8305,
      "ĠPublishing": 8306,
      "Ġwi": 8307,
      "locations": 8308,
      "ager": 8309,
      "ĠGl": 8310,
      "impro": 8311,
      "Ġreveals": 8312,
      "Ġroute": 8313,
      "Ġquestions": 8314,
      "cially": 8315,
      "Ġdevi": 8316,
      "Ġblank": 8317,
      "Ġcompressor": 8318,
      "itt": 8319,
      "Ġcharging": 8320,
      "Ġquickly": 8321,
      "Ġà": 8322,
      "ĠAG": 8323,
      "ĠSym": 8324,
      "ĠSil": 8325,
      "âĿ¡": 8326,
      "Ġunderstood": 8327,
      "Ġconcerning": 8328,
      "IGN": 8329,
      "rome": 8330,
      "ĠLo": 8331,
      "men": 8332,
      "exc": 8333,
      "Ġcontinuously": 8334,
      "Ġcontamination": 8335,
      "Ġtargets": 8336,
      "ua": 8337,
      "operation": 8338,
      "EW": 8339,
      "constant": 8340,
      "theless": 8341,
      "yr": 8342,
      "Ġinterpretation": 8343,
      "****************": 8344,
      "Ġconvection": 8345,
      "Ġcodes": 8346,
      "Ġdemonstrates": 8347,
      "uli": 8348,
      "ĠRed": 8349,
      "Ġdecl": 8350,
      "factory": 8351,
      "celer": 8352,
      "BP": 8353,
      "some": 8354,
      "ATED": 8355,
      "Ġstrengths": 8356,
      "cretion": 8357,
      "Ġpropulsion": 8358,
      "ĠTop": 8359,
      "ambda": 8360,
      "radiation": 8361,
      "demon": 8362,
      "ĠĊĠĊĠĊ": 8363,
      "Ġrefractive": 8364,
      "âĪ«": 8365,
      "Ġpositioning": 8366,
      "Ġstochastic": 8367,
      "ivil": 8368,
      "Dr": 8369,
      "éĩ": 8370,
      "Ġanch": 8371,
      "Ġdifferentiation": 8372,
      "rengthe": 8373,
      "ĠIC": 8374,
      "Ġarter": 8375,
      "Ġtracking": 8376,
      "Ġreplaced": 8377,
      "Ġacting": 8378,
      "Ġinclusion": 8379,
      "Ġantibody": 8380,
      "increase": 8381,
      "Ġinvest": 8382,
      "ĠïĢ«": 8383,
      "Ġdatas": 8384,
      "arb": 8385,
      "anese": 8386,
      "strating": 8387,
      "Ġimpacts": 8388,
      "ĠThrough": 8389,
      "Ġ128": 8390,
      "Ġpitch": 8391,
      "Ġsegments": 8392,
      "yes": 8393,
      "iop": 8394,
      "ructive": 8395,
      "Ġlargely": 8396,
      "Ġsurvival": 8397,
      "unct": 8398,
      "Ġpossibly": 8399,
      "Ġlaminate": 8400,
      "Ġgiving": 8401,
      "Ġlabor": 8402,
      "Ġpassage": 8403,
      "ido": 8404,
      "Ġverified": 8405,
      "1999": 8406,
      "Ġwomen": 8407,
      "Ġsafe": 8408,
      "Ġinfinite": 8409,
      "aÃ§Ã£o": 8410,
      "coming": 8411,
      "ĠSM": 8412,
      "ĠInvestig": 8413,
      "END": 8414,
      "Ġlymph": 8415,
      "ĠEnvironmental": 8416,
      "Ġol": 8417,
      "ĠGen": 8418,
      "ĠTEST": 8419,
      "Ġbecame": 8420,
      "Ġconsisted": 8421,
      "Ġmeaning": 8422,
      "Ġsurfactant": 8423,
      "wide": 8424,
      "umb": 8425,
      "wich": 8426,
      "Ġattachment": 8427,
      "EMENT": 8428,
      "ROM": 8429,
      "cipl": 8430,
      "å¯": 8431,
      "oprop": 8432,
      "Although": 8433,
      "cember": 8434,
      "Ġrain": 8435,
      "ï£º": 8436,
      "Ġinstant": 8437,
      "ati": 8438,
      "Ġalt": 8439,
      "blast": 8440,
      "iang": 8441,
      "ellig": 8442,
      "ĠDivision": 8443,
      ":.": 8444,
      "Ġreconstruction": 8445,
      "Ġflexibility": 8446,
      "ïĢ«": 8447,
      "ENDIX": 8448,
      "ĠIr": 8449,
      "ĠCONT": 8450,
      "Ġfeasibility": 8451,
      "Ġconsiderably": 8452,
      "aily": 8453,
      "indic": 8454,
      "Ġelectronics": 8455,
      "Ġschemes": 8456,
      "ĠCle": 8457,
      "Ġvalu": 8458,
      "ratio": 8459,
      "Ġcomb": 8460,
      "Materials": 8461,
      "ĠPlan": 8462,
      "ĠPublications": 8463,
      "ĠPDMS": 8464,
      "ivate": 8465,
      "Ġsubjects": 8466,
      "ĠBro": 8467,
      "oral": 8468,
      "Ġintervals": 8469,
      "ĠAutom": 8470,
      "Ġpayload": 8471,
      "Ġsn": 8472,
      "Ġquartz": 8473,
      "ict": 8474,
      "ĠSr": 8475,
      "expected": 8476,
      "Ġ1500": 8477,
      "Ġdisplacements": 8478,
      "Ġconvey": 8479,
      "gal": 8480,
      "Ġzones": 8481,
      "applications": 8482,
      "opper": 8483,
      "Ġfractions": 8484,
      "uck": 8485,
      "Ġfoil": 8486,
      "cd": 8487,
      "roid": 8488,
      "Ġgraphs": 8489,
      "iliary": 8490,
      "ĠRA": 8491,
      "Ġinduction": 8492,
      "Ġrecognition": 8493,
      "ĠUse": 8494,
      "--------------------------------": 8495,
      "Ġdeple": 8496,
      "ĠHE": 8497,
      "BO": 8498,
      "Ġhydrocarbon": 8499,
      "Ġ1988": 8500,
      "Nb": 8501,
      "Ġrecord": 8502,
      "ima": 8503,
      "Ġaccordance": 8504,
      "ĠRoyal": 8505,
      "006": 8506,
      "Ġgradients": 8507,
      "Ġmetast": 8508,
      "Ġcombining": 8509,
      "ĠMechanics": 8510,
      "ibr": 8511,
      "Space": 8512,
      "versely": 8513,
      "Ġsynchron": 8514,
      "Ġ.......": 8515,
      "Att": 8516,
      "+,": 8517,
      "Ġdispersed": 8518,
      "Ġvalidation": 8519,
      "Ġintended": 8520,
      "inated": 8521,
      "ĠmV": 8522,
      "ĠRate": 8523,
      "Ġconform": 8524,
      "occur": 8525,
      "Ġcoolant": 8526,
      "osa": 8527,
      "???": 8528,
      "âĪŀ": 8529,
      "ĠIncre": 8530,
      "Ġadditive": 8531,
      "Ġfinally": 8532,
      "Ġpathways": 8533,
      "Ġtransducer": 8534,
      "åľ": 8535,
      "ENCE": 8536,
      "Sol": 8537,
      "ĠHR": 8538,
      "Ġplasm": 8539,
      "DP": 8540,
      "Ġaggregates": 8541,
      "Ġfibres": 8542,
      "Ġbag": 8543,
      "Sb": 8544,
      "Ġink": 8545,
      "Ġguar": 8546,
      "sectional": 8547,
      "Ġdirected": 8548,
      "Ġanimals": 8549,
      "ogenous": 8550,
      "Ġregulation": 8551,
      "Ġcoordinates": 8552,
      "Ġwavelengths": 8553,
      "Ġexplan": 8554,
      "ĠExperiment": 8555,
      "Ġnanostructures": 8556,
      "(\\": 8557,
      "consid": 8558,
      "Ġfeeding": 8559,
      "Ġhardening": 8560,
      "ĠCondition": 8561,
      "total": 8562,
      "VEL": 8563,
      "GS": 8564,
      "Ġgalaxies": 8565,
      "ĠLin": 8566,
      "Ġillustrates": 8567,
      "Two": 8568,
      "Journal": 8569,
      "Ġrecombination": 8570,
      "Ġts": 8571,
      "Ġtrade": 8572,
      "Ġphon": 8573,
      "Ġvectors": 8574,
      "Ġcarrying": 8575,
      "ĠGR": 8576,
      "otechnology": 8577,
      "129": 8578,
      "Ġcart": 8579,
      "terior": 8580,
      "Ġ135": 8581,
      "ĠĊĠĊĠĠ": 8582,
      "orbit": 8583,
      "Ġbodies": 8584,
      "BF": 8585,
      "pplement": 8586,
      "Ġha": 8587,
      "ĠComposite": 8588,
      "linking": 8589,
      "war": 8590,
      "Ġpreferred": 8591,
      "ĠGrowth": 8592,
      "SW": 8593,
      "Ġcu": 8594,
      "ĠLiquid": 8595,
      "Ġna": 8596,
      "Ġverify": 8597,
      "Ġentropy": 8598,
      "220": 8599,
      "Ġ1980": 8600,
      "just": 8601,
      "Ġaux": 8602,
      "ĠTE": 8603,
      "ĠOnce": 8604,
      "RES": 8605,
      "ulph": 8606,
      "Ġsolvents": 8607,
      "'\"": 8608,
      "made": 8609,
      "because": 8610,
      "squ": 8611,
      "Ġconclusions": 8612,
      "ĠKn": 8613,
      "Ġdeliv": 8614,
      "Ġpig": 8615,
      "imization": 8616,
      "ĠCross": 8617,
      "ĠSet": 8618,
      "yzed": 8619,
      "pd": 8620,
      "esides": 8621,
      "Ġbiomass": 8622,
      "133": 8623,
      "Ġconverted": 8624,
      "Ġbind": 8625,
      "Ġobjectives": 8626,
      "ief": 8627,
      "hyde": 8628,
      "âĪļ": 8629,
      "same": 8630,
      "Ġpromote": 8631,
      "oles": 8632,
      "amo": 8633,
      "Ġfixing": 8634,
      "ami": 8635,
      "Ġbund": 8636,
      "ĠRequ": 8637,
      "Ġinterfer": 8638,
      "ĠMeasurements": 8639,
      "Ġthermally": 8640,
      "Ġtungsten": 8641,
      "Ġdeath": 8642,
      "electronic": 8643,
      "ĠLight": 8644,
      "ĠWil": 8645,
      "FI": 8646,
      ":,": 8647,
      "Ġincorporation": 8648,
      "ĠProt": 8649,
      "ĠMonte": 8650,
      "STRACT": 8651,
      "âĹı": 8652,
      "nes": 8653,
      "Ġoffset": 8654,
      "atics": 8655,
      "ĠPropulsion": 8656,
      "struction": 8657,
      "jected": 8658,
      "Ġfir": 8659,
      "Ġimplies": 8660,
      "steady": 8661,
      "Ġcarbide": 8662,
      "GC": 8663,
      "Max": 8664,
      "pture": 8665,
      "istors": 8666,
      "ogonal": 8667,
      "Ġmasses": 8668,
      "aceut": 8669,
      "base": 8670,
      "ĠDATA": 8671,
      "Ġil": 8672,
      "compress": 8673,
      "Ġcreating": 8674,
      "Ġ1987": 8675,
      "Ġacceptable": 8676,
      "Ġmaintaining": 8677,
      "itives": 8678,
      "fection": 8679,
      "Ġmissions": 8680,
      "Ġrules": 8681,
      "Ġmostly": 8682,
      "dehyde": 8683,
      "TP": 8684,
      "Ġtrial": 8685,
      "attered": 8686,
      "ĠEven": 8687,
      "Ġmouse": 8688,
      "ĠÂ«": 8689,
      "ENCES": 8690,
      "Ġkinds": 8691,
      "BI": 8692,
      "HO": 8693,
      "ipp": 8694,
      "Ġprotective": 8695,
      "ĠApril": 8696,
      "çī": 8697,
      "zero": 8698,
      "Ġhelium": 8699,
      "imetric": 8700,
      "ĠExp": 8701,
      "FORM": 8702,
      "tices": 8703,
      "Ġaccomp": 8704,
      "optical": 8705,
      "Ġboiling": 8706,
      "vation": 8707,
      "ĠNb": 8708,
      "Ġoverview": 8709,
      "Ġproperly": 8710,
      "BD": 8711,
      "lik": 8712,
      "bic": 8713,
      "Ġerosion": 8714,
      "stead": 8715,
      "Ġrank": 8716,
      "Opt": 8717,
      "electrode": 8718,
      "ĠÎ¼g": 8719,
      "UP": 8720,
      "Ġmolar": 8721,
      "Ġmoderate": 8722,
      "assium": 8723,
      "umn": 8724,
      "oting": 8725,
      "equation": 8726,
      "Ġnormally": 8727,
      "Ġdoub": 8728,
      "rick": 8729,
      "ĠMich": 8730,
      "Ġutilization": 8731,
      "Ġrefriger": 8732,
      "opes": 8733,
      "zen": 8734,
      "ĠÎ·": 8735,
      "Further": 8736,
      "iac": 8737,
      "dent": 8738,
      "roke": 8739,
      "oichi": 8740,
      "Ġresource": 8741,
      "ufacturing": 8742,
      "Ġstock": 8743,
      "could": 8744,
      "Phys": 8745,
      "Therefore": 8746,
      "Ġshut": 8747,
      "ĠÅĵ": 8748,
      "standard": 8749,
      "coating": 8750,
      "Ġrich": 8751,
      "Ġcomplicated": 8752,
      "Ġshorter": 8753,
      "Ġdens": 8754,
      "Ġignition": 8755,
      "Ġotherwise": 8756,
      "mb": 8757,
      "Ġ170": 8758,
      "450": 8759,
      "gements": 8760,
      "cean": 8761,
      "LOW": 8762,
      "Ġ127": 8763,
      "âĢ©": 8764,
      "Ġbinder": 8765,
      "132": 8766,
      "average": 8767,
      "ativ": 8768,
      "Ġorganization": 8769,
      "Ġbelt": 8770,
      "Ġconnections": 8771,
      "Ġformer": 8772,
      "ĠÑģ": 8773,
      "Ġdots": 8774,
      "Ġarr": 8775,
      "Ġproportion": 8776,
      "ĠTex": 8777,
      "ĠSS": 8778,
      "136": 8779,
      "rial": 8780,
      "developed": 8781,
      "Ġexchanger": 8782,
      "Ġtre": 8783,
      "137": 8784,
      ",,,,": 8785,
      "Ġfilling": 8786,
      "Ġdisord": 8787,
      "Ġinhibition": 8788,
      "HP": 8789,
      "ĠdB": 8790,
      "Ġremote": 8791,
      "allow": 8792,
      "igu": 8793,
      "Ġaccommod": 8794,
      "without": 8795,
      "ATERIAL": 8796,
      "Ġdissolution": 8797,
      "ĠSolution": 8798,
      "undred": 8799,
      "adium": 8800,
      "Ġsleeve": 8801,
      "Ġthought": 8802,
      "ĠPredic": 8803,
      "Ġold": 8804,
      "1998": 8805,
      "Ġinflamm": 8806,
      "Ġ(~": 8807,
      "foil": 8808,
      "145": 8809,
      "ĠOnly": 8810,
      "Ġinver": 8811,
      "Ġbench": 8812,
      "Ġdram": 8813,
      "ĠPaper": 8814,
      "ops": 8815,
      "Ġbacterial": 8816,
      "ĠCost": 8817,
      "Ġ03": 8818,
      "Ġsediment": 8819,
      "Ġhierarch": 8820,
      "Ġisot": 8821,
      "Ġattrib": 8822,
      "ĠHo": 8823,
      "oline": 8824,
      "ruit": 8825,
      "diffusion": 8826,
      "atom": 8827,
      "substrate": 8828,
      "Ġfaces": 8829,
      "eting": 8830,
      "Ġassembled": 8831,
      "otechn": 8832,
      "Ġservices": 8833,
      "ĠGPa": 8834,
      "Ġcrystallization": 8835,
      "Ġtree": 8836,
      "Ġhazard": 8837,
      "Ġtransmitted": 8838,
      "ĠDIS": 8839,
      "osh": 8840,
      "itosan": 8841,
      "Ġscaffold": 8842,
      "ĠEvaluation": 8843,
      "emission": 8844,
      "Ġanimal": 8845,
      "ancies": 8846,
      "-ÂŃ": 8847,
      "Pb": 8848,
      "ospital": 8849,
      "Ġrefere": 8850,
      "aer": 8851,
      "Ġillumination": 8852,
      "Ġtasks": 8853,
      "Ġdrilling": 8854,
      "FRP": 8855,
      "REFER": 8856,
      "Ġpurch": 8857,
      "Ġfloor": 8858,
      "ĠAugust": 8859,
      "Pe": 8860,
      "Ġimplications": 8861,
      "131": 8862,
      "GM": 8863,
      "play": 8864,
      "ĠCFD": 8865,
      "muir": 8866,
      "zone": 8867,
      "Ġrods": 8868,
      "144": 8869,
      "ĠConsequently": 8870,
      "HD": 8871,
      "oxygen": 8872,
      "Ġsequential": 8873,
      "Ġpermit": 8874,
      "ĠIts": 8875,
      "Ġpermanent": 8876,
      "force": 8877,
      "mented": 8878,
      "temperatures": 8879,
      "iy": 8880,
      "ushing": 8881,
      "ĠElectrical": 8882,
      "Ġ.-": 8883,
      "ocl": 8884,
      "CLUSION": 8885,
      "ĠPER": 8886,
      "ĠĠĠĊĠ": 8887,
      "ulatory": 8888,
      "rep": 8889,
      "approximately": 8890,
      "175": 8891,
      "Ġoct": 8892,
      "Ġseven": 8893,
      "glass": 8894,
      "Ġpermission": 8895,
      "ĠThesis": 8896,
      "wood": 8897,
      "Ġstationary": 8898,
      "Ġdoor": 8899,
      "information": 8900,
      "ĠSmith": 8901,
      "ĠJr": 8902,
      "ĠSmall": 8903,
      "PY": 8904,
      "Ġpositioned": 8905,
      "Ver": 8906,
      "Ġalpha": 8907,
      "240": 8908,
      "Ġhttps": 8909,
      "Ġpaths": 8910,
      "_{\\": 8911,
      "139": 8912,
      "ĠApplication": 8913,
      "ĠElement": 8914,
      "Ġstudying": 8915,
      "ilding": 8916,
      "Ġpolicy": 8917,
      "Ġfailed": 8918,
      "IX": 8919,
      "Ġsomet": 8920,
      "Ġhydrogel": 8921,
      "olith": 8922,
      "itzer": 8923,
      "ĠFu": 8924,
      "ĠRedu": 8925,
      "tw": 8926,
      "Ġnanor": 8927,
      "Ġrepresenting": 8928,
      "br": 8929,
      "cel": 8930,
      "âĸ": 8931,
      "lyte": 8932,
      "Ġadjusting": 8933,
      "ĠAtt": 8934,
      "ologic": 8935,
      "ENG": 8936,
      "Ġretention": 8937,
      "æĢ§": 8938,
      "PF": 8939,
      "Ġhandling": 8940,
      "Ġoccurrence": 8941,
      "ĠASTM": 8942,
      "Ġthicknesses": 8943,
      "inum": 8944,
      "corresponding": 8945,
      "ony": 8946,
      "ĠVis": 8947,
      "Ġcompli": 8948,
      "Eq": 8949,
      "ducers": 8950,
      "ĠHuang": 8951,
      "Ġsymb": 8952,
      "itively": 8953,
      "Ġweights": 8954,
      "Ġdiscontinu": 8955,
      "ICATION": 8956,
      "Ġoperators": 8957,
      "Ġrout": 8958,
      "Ġ1986": 8959,
      "Ġentry": 8960,
      "Ġherein": 8961,
      "ĠMO": 8962,
      "ĉĉĉĉ": 8963,
      "rittle": 8964,
      "mediated": 8965,
      "rog": 8966,
      "carb": 8967,
      "Ġrecommend": 8968,
      "Ġtab": 8969,
      "aste": 8970,
      "taken": 8971,
      "nowled": 8972,
      "Ġgrade": 8973,
      "ea": 8974,
      "cat": 8975,
      "pattern": 8976,
      "UJ": 8977,
      "FET": 8978,
      "Ġreag": 8979,
      "ĠArea": 8980,
      "Ġprojects": 8981,
      "ĠHel": 8982,
      "ĠREP": 8983,
      "Ġassigned": 8984,
      "determined": 8985,
      "Ġdrift": 8986,
      "phi": 8987,
      "often": 8988,
      "Pd": 8989,
      "ancial": 8990,
      "Cell": 8991,
      "Ġadvance": 8992,
      "ĠJanuary": 8993,
      "MO": 8994,
      "ĠThin": 8995,
      "Ġbreakdown": 8996,
      "Ġ3000": 8997,
      "isions": 8998,
      "ĠâīĪ": 8999,
      "Ġ1985": 9000,
      "Ġdrops": 9001,
      "Ġner": 9002,
      "bottom": 9003,
      "Ġfreedom": 9004,
      "Ġstarted": 9005,
      "Ġrotary": 9006,
      "Ġpacking": 9007,
      "Ġ(%)": 9008,
      "æĿ": 9009,
      "comb": 9010,
      "('": 9011,
      "APPENDIX": 9012,
      "Inter": 9013,
      "Ġactually": 9014,
      "nn": 9015,
      "Ġdot": 9016,
      "wavelength": 9017,
      "Ġnitride": 9018,
      "ovskite": 9019,
      "Ġsomewhat": 9020,
      "Ġ........": 9021,
      "Ġframes": 9022,
      "Ġlumin": 9023,
      "Ġmoments": 9024,
      "Di": 9025,
      "Ġimmune": 9026,
      "ĠStrength": 9027,
      "Ġbreast": 9028,
      "Ġpm": 9029,
      "Equation": 9030,
      "Ġconcern": 9031,
      "ena": 9032,
      "ĠkHz": 9033,
      "155": 9034,
      "heating": 9035,
      "Ġmillion": 9036,
      "%),": 9037,
      "Ġcontinued": 9038,
      "WA": 9039,
      "IST": 9040,
      "ĠSal": 9041,
      "Ġanalysed": 9042,
      "ocouple": 9043,
      "rying": 9044,
      "âĢĿ.": 9045,
      "Ð½Ð¸": 9046,
      "Ġsingular": 9047,
      "Ġcollector": 9048,
      "Ġpil": 9049,
      "herence": 9050,
      "ĠIon": 9051,
      "complete": 9052,
      "Ġhome": 9053,
      "Ġrobot": 9054,
      "ĠCam": 9055,
      "parameter": 9056,
      "Ġcasing": 9057,
      "development": 9058,
      "Ġcrop": 9059,
      "Ġeconom": 9060,
      "Ġprice": 9061,
      "Ġinsulating": 9062,
      "Ġsaturated": 9063,
      "calculated": 9064,
      "Ġpredomin": 9065,
      "ulative": 9066,
      "ĠHow": 9067,
      "Ġuna": 9068,
      "bone": 9069,
      "ĠSeptember": 9070,
      "æĪ": 9071,
      "Ġfeasible": 9072,
      "Ġpasses": 9073,
      "Ġhyp": 9074,
      "ander": 9075,
      "ĠCatal": 9076,
      "limited": 9077,
      "Ġshifts": 9078,
      "Ġfacilities": 9079,
      "ards": 9080,
      "Ġordered": 9081,
      "glomer": 9082,
      "luor": 9083,
      "Ġcentrifug": 9084,
      "Ġms": 9085,
      "ona": 9086,
      "Ġnever": 9087,
      "Ġbearings": 9088,
      "Ġrealistic": 9089,
      "Ġwells": 9090,
      "Ġmedicine": 9091,
      "ĠReference": 9092,
      "Ġ123": 9093,
      "Ġsignaling": 9094,
      "138": 9095,
      "ĠRob": 9096,
      "Ġcort": 9097,
      "Ġsuction": 9098,
      "grad": 9099,
      "ĠLarge": 9100,
      "crimin": 9101,
      "Ġwhy": 9102,
      "Ġsatellite": 9103,
      "Ġmacroscopic": 9104,
      "ĠClass": 9105,
      "Gener": 9106,
      "OCK": 9107,
      "itary": 9108,
      "Ġsympt": 9109,
      "ĠïĢ½": 9110,
      "GT": 9111,
      "Ġnanocomposites": 9112,
      "Ġsupplement": 9113,
      "Ġimmobil": 9114,
      "Ġroad": 9115,
      "Ġimproves": 9116,
      "Ġcalculating": 9117,
      "core": 9118,
      "WCNT": 9119,
      "Ġcoarse": 9120,
      "ĠSan": 9121,
      "Ġuniformly": 9122,
      "ĠPoisson": 9123,
      "ĠSouth": 9124,
      "Ġsea": 9125,
      "efficiency": 9126,
      "path": 9127,
      "source": 9128,
      "Ġstronger": 9129,
      "ĠTransport": 9130,
      "Ġtoxic": 9131,
      "ĠÌĬ": 9132,
      "è¡": 9133,
      "Ġblow": 9134,
      "processing": 9135,
      "Ġtet": 9136,
      "Ġplanning": 9137,
      "Ġanalyzing": 9138,
      "SiC": 9139,
      "osed": 9140,
      "ĠâĨĴ": 9141,
      "Ġaveraged": 9142,
      "Ġvalidated": 9143,
      "Ġenvelop": 9144,
      "URES": 9145,
      "008": 9146,
      "Ġlinearly": 9147,
      "driven": 9148,
      "crystal": 9149,
      "Data": 9150,
      "Ġproceed": 9151,
      "Ġupstream": 9152,
      "ĠAmong": 9153,
      "ville": 9154,
      "should": 9155,
      "Ġholder": 9156,
      "rb": 9157,
      "Ġneighb": 9158,
      "Ġnumerically": 9159,
      "ectic": 9160,
      "Cy": 9161,
      "henyl": 9162,
      "Ġphotons": 9163,
      "Ġzircon": 9164,
      "ĠWilli": 9165,
      "independent": 9166,
      "Ġsav": 9167,
      "inction": 9168,
      "PERIM": 9169,
      "Ġjournal": 9170,
      "Ġlunar": 9171,
      "eding": 9172,
      "Ġscenarios": 9173,
      "Ġbeg": 9174,
      "omorph": 9175,
      "lO": 9176,
      "pin": 9177,
      "ĠLewis": 9178,
      "Ġappreci": 9179,
      "Ġpixel": 9180,
      "Ġlogic": 9181,
      "Ġefficacy": 9182,
      "Ġdetectors": 9183,
      "Ġbeneficial": 9184,
      "riend": 9185,
      "magn": 9186,
      "ĠPort": 9187,
      "oded": 9188,
      "Using": 9189,
      "issue": 9190,
      "ĠOctober": 9191,
      "*(": 9192,
      "Ġlic": 9193,
      "ureth": 9194,
      "Ġrefer": 9195,
      "za": 9196,
      "Ġautomatically": 9197,
      "Ġpopular": 9198,
      "Ġoscillations": 9199,
      "Ġrational": 9200,
      "experiments": 9201,
      "Ġvariance": 9202,
      "ĠPAGE": 9203,
      "mathbb": 9204,
      "approach": 9205,
      "Ġmicrofluidic": 9206,
      "elles": 9207,
      "Ġsent": 9208,
      "Ġ121": 9209,
      "ĠPharm": 9210,
      "Ġcoordination": 9211,
      "Ġelectricity": 9212,
      "effects": 9213,
      "ridge": 9214,
      "Ġferro": 9215,
      "Ġbook": 9216,
      "Bs": 9217,
      "Ġaid": 9218,
      "reaction": 9219,
      "ioned": 9220,
      "Ġ2020": 9221,
      "Ġargon": 9222,
      "iox": 9223,
      "Ġconsiderations": 9224,
      "Ġgradually": 9225,
      "get": 9226,
      "ĠPet": 9227,
      "Ġoption": 9228,
      "Ġfrequently": 9229,
      "ĠBre": 9230,
      "itter": 9231,
      "Ġbubbles": 9232,
      "Ġelasticity": 9233,
      "open": 9234,
      "ductive": 9235,
      "real": 9236,
      "net": 9237,
      "ĠStation": 9238,
      "Ġtemplate": 9239,
      "Ġ129": 9240,
      "ĠSI": 9241,
      "raviolet": 9242,
      "Ġexception": 9243,
      "Ġquantify": 9244,
      "Ġsputtering": 9245,
      "Ġemploying": 9246,
      "Ġcollapse": 9247,
      "Ġflexural": 9248,
      "Micro": 9249,
      "Ġteam": 9250,
      "Ġwireless": 9251,
      "Finally": 9252,
      "intered": 9253,
      "205": 9254,
      "place": 9255,
      "yne": 9256,
      "relations": 9257,
      "Ġdefic": 9258,
      "hl": 9259,
      "Ġtorsion": 9260,
      "pton": 9261,
      "Ġremoving": 9262,
      "phys": 9263,
      "ĠHydrogen": 9264,
      "Ġadapted": 9265,
      "Ġsurgery": 9266,
      "ĠCC": 9267,
      "Ġsecurity": 9268,
      "ĠTECHN": 9269,
      "ĠXPS": 9270,
      "ĠkPa": 9271,
      "Ġansw": 9272,
      "Ġexpressions": 9273,
      "ĠSD": 9274,
      "Ġsoluble": 9275,
      "forward": 9276,
      "region": 9277,
      "Ġdescribing": 9278,
      "Ġaccepted": 9279,
      "cation": 9280,
      "anol": 9281,
      "cknowled": 9282,
      "Ġmagnetization": 9283,
      "ologically": 9284,
      "Ġabsorbed": 9285,
      "Ġtin": 9286,
      "Ġast": 9287,
      "rance": 9288,
      "ruary": 9289,
[...]
